{
  "version": "1.0",
  "truncation": null,
  "padding": null,
  "added_tokens": [
    {
      "id": 0,
      "special": true,
      "content": "[UNK]",
      "single_word": false,
      "lstrip": false,
      "rstrip": false,
      "normalized": false
    },
    {
      "id": 1,
      "special": true,
      "content": "[CLS]",
      "single_word": false,
      "lstrip": false,
      "rstrip": false,
      "normalized": false
    },
    {
      "id": 2,
      "special": true,
      "content": "[SEP]",
      "single_word": false,
      "lstrip": false,
      "rstrip": false,
      "normalized": false
    },
    {
      "id": 3,
      "special": true,
      "content": "[PAD]",
      "single_word": false,
      "lstrip": false,
      "rstrip": false,
      "normalized": false
    },
    {
      "id": 4,
      "special": true,
      "content": "[MASK]",
      "single_word": false,
      "lstrip": false,
      "rstrip": false,
      "normalized": false
    }
  ],
  "normalizer": null,
  "pre_tokenizer": {
    "type": "Whitespace"
  },
  "post_processor": null,
  "decoder": null,
  "model": {
    "type": "BPE",
    "dropout": null,
    "unk_token": "[UNK]",
    "continuing_subword_prefix": null,
    "end_of_word_suffix": null,
    "fuse_unk": false,
    "vocab": {
      "[UNK]": 0,
      "[CLS]": 1,
      "[SEP]": 2,
      "[PAD]": 3,
      "[MASK]": 4,
      "$": 5,
      "(": 6,
      ")": 7,
      "*": 8,
      "+": 9,
      ",": 10,
      "-": 11,
      ".": 12,
      "0": 13,
      "1": 14,
      "2": 15,
      "3": 16,
      "4": 17,
      "5": 18,
      "6": 19,
      "7": 20,
      "8": 21,
      "9": 22,
      ":": 23,
      "A": 24,
      "B": 25,
      "C": 26,
      "D": 27,
      "E": 28,
      "F": 29,
      "G": 30,
      "H": 31,
      "I": 32,
      "J": 33,
      "K": 34,
      "L": 35,
      "M": 36,
      "N": 37,
      "O": 38,
      "P": 39,
      "Q": 40,
      "R": 41,
      "S": 42,
      "T": 43,
      "U": 44,
      "V": 45,
      "W": 46,
      "X": 47,
      "Y": 48,
      "Z": 49,
      "[": 50,
      "]": 51,
      "_": 52,
      "a": 53,
      "b": 54,
      "c": 55,
      "d": 56,
      "e": 57,
      "f": 58,
      "g": 59,
      "h": 60,
      "i": 61,
      "j": 62,
      "k": 63,
      "l": 64,
      "m": 65,
      "n": 66,
      "o": 67,
      "p": 68,
      "q": 69,
      "r": 70,
      "s": 71,
      "t": 72,
      "u": 73,
      "v": 74,
      "w": 75,
      "x": 76,
      "y": 77,
      "z": 78,
      "mo": 79,
      "mov": 80,
      "ax": 81,
      "rb": 82,
      "rbp": 83,
      "ar": 84,
      "ar_": 85,
      "var_": 86,
      "rax": 87,
      "rd": 88,
      "],": 89,
      "eax": 90,
      "lo": 91,
      "loc": 92,
      "mp": 93,
      "var_1": 94,
      "rdx": 95,
      "cx": 96,
      "mm": 97,
      "xmm": 98,
      "al": 99,
      "sh": 100,
      "rs": 101,
      "FF": 102,
      "rdi": 103,
      "or": 104,
      "rcx": 105,
      "var_2": 106,
      "cal": 107,
      "call": 108,
      "ed": 109,
      "sd": 110,
      "cmp": 111,
      "xmm0": 112,
      "ad": 113,
      "tr": 114,
      "add": 115,
      "0h": 116,
      "jmp": 117,
      "ort": 118,
      "var_8": 119,
      "short": 120,
      "ub": 121,
      "sub": 122,
      "ord": 123,
      "word": 124,
      "es": 125,
      "40": 126,
      "ptr": 127,
      "var_3": 128,
      "le": 129,
      "edx": 130,
      "rsi": 131,
      "et": 132,
      "movsd": 133,
      "lea": 134,
      "var_10": 135,
      "var_18": 136,
      "var_4": 137,
      "rsp": 138,
      "ecx": 139,
      "FFFF": 140,
      "qword": 141,
      "jz": 142,
      "xmm1": 143,
      "jn": 144,
      "var_20": 145,
      "esi": 146,
      "cs": 147,
      "41": 148,
      "8h": 149,
      "var_28": 150,
      "jnz": 151,
      "var_5": 152,
      "pu": 153,
      "est": 154,
      "te": 155,
      "push": 156,
      "set": 157,
      "var_30": 158,
      "ret": 159,
      "ff": 160,
      "off": 161,
      "test": 162,
      "var_38": 163,
      "movz": 164,
      "edi": 165,
      "movzx": 166,
      "00": 167,
      "dword": 168,
      "var_6": 169,
      "movs": 170,
      "_g": 171,
      "by": 172,
      "byte": 173,
      "10h": 174,
      "ds": 175,
      "nd": 176,
      "op": 177,
      "offset": 178,
      "var_7": 179,
      "r1": 180,
      "movsx": 181,
      "42": 182,
      "var_40": 183,
      "r8": 184,
      "ul": 185,
      "and": 186,
      "mul": 187,
      "retn": 188,
      "var_48": 189,
      "var_C": 190,
      "xor": 191,
      "FFFFFFFF": 192,
      "shl": 193,
      "movsxd": 194,
      "l_": 195,
      "20h": 196,
      "er": 197,
      "pop": 198,
      "_f": 199,
      "var_50": 200,
      "10": 201,
      "var_14": 202,
      "$+": 203,
      "xmm2": 204,
      "var_58": 205,
      "in": 206,
      "43": 207,
      "20": 208,
      "re": 209,
      "var_9": 210,
      "_s": 211,
      "18h": 212,
      "45": 213,
      "r9": 214,
      "var_1C": 215,
      "A0": 216,
      "mulsd": 217,
      "30h": 218,
      "ve": 219,
      "60": 220,
      "Ch": 221,
      "st": 222,
      "50": 223,
      "rbx": 224,
      "B8": 225,
      "B0": 226,
      "D0": 227,
      "30": 228,
      "jb": 229,
      "var_60": 230,
      "sl_": 231,
      "var_24": 232,
      "var_68": 233,
      "_gsl_": 234,
      "A8": 235,
      "6C": 236,
      "g_": 237,
      "err": 238,
      "0FFFFFFFF": 239,
      "E0": 240,
      "28": 241,
      "18": 242,
      "locret": 243,
      "locret_": 244,
      "co": 245,
      "__": 246,
      "ap": 247,
      "44": 248,
      "70": 249,
      "r8d": 250,
      "2D": 251,
      "F0": 252,
      "var_70": 253,
      "arg_": 254,
      "E8": 255,
      "46": 256,
      "var_78": 257,
      "movap": 258,
      "D8": 259,
      "Fh": 260,
      "4B": 261,
      "13": 262,
      "at": 263,
      "si": 264,
      "dq": 265,
      "leave": 266,
      "47": 267,
      "jg": 268,
      "F8": 269,
      "cdq": 270,
      "4h": 271,
      "90": 272,
      "16": 273,
      "var_2C": 274,
      "r9d": 275,
      "ree": 276,
      "cl": 277,
      "_str": 278,
      "addsd": 279,
      "48": 280,
      "cdqe": 281,
      "2C": 282,
      "_get": 283,
      "imul": 284,
      "me": 285,
      "_free": 286,
      "lp": 287,
      "mi": 288,
      "var_34": 289,
      "38": 290,
      "var_80": 291,
      "58": 292,
      "28h": 293,
      "68": 294,
      "int": 295,
      "nop": 296,
      "comi": 297,
      "2E": 298,
      "2B": 299,
      "0A": 300,
      "1C": 301,
      "as": 302,
      "di": 303,
      "2F": 304,
      "98": 305,
      "78": 306,
      "40h": 307,
      "pr": 308,
      "comisd": 309,
      "arg_0": 310,
      "0000": 311,
      "jle": 312,
      "jbe": 313,
      "25": 314,
      "var_88": 315,
      "63": 316,
      "_glp": 317,
      "4C": 318,
      "rc": 319,
      "eb": 320,
      "ucomisd": 321,
      "4A": 322,
      "ebx": 323,
      "off_": 324,
      "0FFFFFFFFh": 325,
      "print": 326,
      "17": 327,
      "printf": 328,
      "xmm3": 329,
      "xt": 330,
      "19": 331,
      "dest": 332,
      "1B": 333,
      "error": 334,
      "r12": 335,
      "var_98": 336,
      "movaps": 337,
      "27": 338,
      "un": 339,
      "s1": 340,
      "text": 341,
      "1E": 342,
      "r10": 343,
      "49": 344,
      "29": 345,
      "15": 346,
      "var_3C": 347,
      "div": 348,
      "4E": 349,
      "C0": 350,
      "_glp_": 351,
      "1A": 352,
      "_gettext": 353,
      "4D": 354,
      "dl": 355,
      "4F": 356,
      "6A": 357,
      "2A": 358,
      "1D": 359,
      "6D": 360,
      "var_90": 361,
      "on": 362,
      "38h": 363,
      "1F": 364,
      "movq": 365,
      "c_": 366,
      "ct": 367,
      "var_A0": 368,
      "subsd": 369,
      "src": 370,
      "69": 371,
      "53": 372,
      "67": 373,
      "50h": 374,
      "jnb": 375,
      "23": 376,
      "aS": 377,
      "shr": 378,
      "len": 379,
      "str": 380,
      "var_44": 381,
      "_ptr": 382,
      "0B": 383,
      "55": 384,
      "mem": 385,
      "C8": 386,
      "r11": 387,
      "am": 388,
      "ja": 389,
      "jge": 390,
      "divsd": 391,
      "___": 392,
      "_gsl_error": 393,
      "cv": 394,
      "65": 395,
      "no": 396,
      "cvt": 397,
      "FE": 398,
      "r14": 399,
      "_mem": 400,
      "var_A8": 401,
      "0Ch": 402,
      "FFFFFF": 403,
      "408": 404,
      "6E": 405,
      "BC": 406,
      "pxor": 407,
      "48h": 408,
      "99": 409,
      "ion": 410,
      "eam": 411,
      "ou": 412,
      "unk": 413,
      "stream": 414,
      "var_4C": 415,
      "var_B0": 416,
      "11": 417,
      "3C": 418,
      "rl_": 419,
      "000h": 420,
      "movss": 421,
      "57": 422,
      "py": 423,
      "6B": 424,
      "0E": 425,
      "_loc": 426,
      "40D": 427,
      "FC": 428,
      "3E": 429,
      "cpy": 430,
      "var_B8": 431,
      "3D": 432,
      "alloc": 433,
      "movapd": 434,
      "3A": 435,
      "407": 436,
      "40C": 437,
      "66": 438,
      "ld": 439,
      "FFFFFFFFh": 440,
      "0D": 441,
      "0FFFFFFFFFFFFFFFFh": 442,
      "setn": 443,
      "0Ah": 444,
      "std": 445,
      "var_C0": 446,
      "2sd": 447,
      "39": 448,
      "cvtsi": 449,
      "var_C8": 450,
      "40E": 451,
      "AC": 452,
      "5E": 453,
      "var_D8": 454,
      "5C": 455,
      "409": 456,
      "60h": 457,
      "en": 458,
      "DC": 459,
      "F9": 460,
      "pd": 461,
      "r10d": 462,
      "12": 463,
      "t_": 464,
      "jl": 465,
      "cvtsi2sd": 466,
      "37": 467,
      "62": 468,
      "asc_": 469,
      "418": 470,
      "var_54": 471,
      "_re": 472,
      "ctor": 473,
      "ation": 474,
      "_m": 475,
      "F7": 476,
      "61": 477,
      "FD": 478,
      "3B": 479,
      "AA": 480,
      "xmm4": 481,
      "417": 482,
      "_0": 483,
      "aF": 484,
      "_strlen": 485,
      "setnz": 486,
      "var_D0": 487,
      "5B": 488,
      "22": 489,
      "r14d": 490,
      "40B": 491,
      "410": 492,
      "r12d": 493,
      "setz": 494,
      "var_E0": 495,
      "an": 496,
      "FB": 497,
      "errno": 498,
      "r11d": 499,
      "_fprintf": 500,
      "40A": 501,
      "tri": 502,
      "var_E8": 503,
      "21": 504,
      "ma": 505,
      "FA": 506,
      "59": 507,
      "_location": 508,
      "_b": 509,
      "il": 510,
      "errno_location": 511,
      "vector": 512,
      "ch": 513,
      "5D": 514,
      "___errno_location": 515,
      "0C": 516,
      "ser": 517,
      "5A": 518,
      "EC": 519,
      "00h": 520,
      "6C8": 521,
      "80h": 522,
      "7C": 523,
      "r15": 524,
      "9C": 525,
      "ze": 526,
      "var_5C": 527,
      "aM": 528,
      "trix": 529,
      "ex": 530,
      "7E": 531,
      "ame": 532,
      "_memcpy": 533,
      "26": 534,
      "70h": 535,
      "fi": 536,
      "_gsl_vector": 537,
      "word_": 538,
      "se": 539,
      "41C": 540,
      "fld": 541,
      "it": 542,
      "var_108": 543,
      "0FFFFFF": 544,
      "put": 545,
      "FFh": 546,
      "In": 547,
      "616": 548,
      "ss": 549,
      "asser": 550,
      "71": 551,
      "DD": 552,
      "de": 553,
      "var_F8": 554,
      "var_100": 555,
      "var_64": 556,
      "aC": 557,
      "3F": 558,
      "6F": 559,
      "58h": 560,
      "ol": 561,
      "var_F0": 562,
      "_strcmp": 563,
      "ps": 564,
      "B4": 565,
      "0F": 566,
      "r13": 567,
      "13h": 568,
      "41E": 569,
      "ail": 570,
      "5F": 571,
      "97": 572,
      "9A": 573,
      "32": 574,
      "9E": 575,
      "68h": 576,
      "14": 577,
      "stderr": 578,
      "14h": 579,
      "9B": 580,
      "xmmword_": 581,
      "9D": 582,
      "41B": 583,
      "var_6C": 584,
      "__glp_": 585,
      "33": 586,
      "um": 587,
      "7A": 588,
      "uf": 589,
      "_sprintf": 590,
      "var_74": 591,
      "js": 592,
      "sar": 593,
      "7D": 594,
      "andpd": 595,
      "41A": 596,
      "52": 597,
      "_glp_asser": 598,
      "_glp_assert_": 599,
      "aD": 600,
      "matrix": 601,
      "sil": 602,
      "pe": 603,
      "DB": 604,
      "var_7C": 605,
      "56": 606,
      "7B": 607,
      "A4": 608,
      "xorps": 609,
      "2B20": 610,
      "CE": 611,
      "ck": 612,
      "size": 613,
      "54": 614,
      "r15d": 615,
      "var_110": 616,
      "24": 617,
      "51": 618,
      "orm": 619,
      "420": 620,
      "42D": 621,
      "var_128": 622,
      "ourc": 623,
      "xmm5": 624,
      "var_118": 625,
      "64": 626,
      "jp": 627,
      "40F": 628,
      "ne": 629,
      "CC": 630,
      "lin": 631,
      "00000000": 632,
      "asc_4B": 633,
      "73": 634,
      "EE": 635,
      "aR": 636,
      "stat": 637,
      "90h": 638,
      "BB": 639,
      "Sourc": 640,
      "78h": 641,
      "aG": 642,
      "var_84": 643,
      "41D": 644,
      "ow": 645,
      "_malloc": 646,
      "403": 647,
      "pl": 648,
      "CA": 649,
      "ri": 650,
      "eC": 651,
      "var_120": 652,
      "out": 653,
      "D4": 654,
      "aA": 655,
      "pand": 656,
      "BA": 657,
      "To": 658,
      "0FFh": 659,
      "72": 660,
      "79": 661,
      "jns": 662,
      "660": 663,
      "_gsl_matrix": 664,
      "0Fh": 665,
      "var_130": 666,
      "34": 667,
      "off_4B": 668,
      "FFFh": 669,
      "0A0h": 670,
      "_memset": 671,
      "E4": 672,
      "EA": 673,
      "id": 674,
      "BD": 675,
      "stp": 676,
      "F4": 677,
      "80": 678,
      "fstp": 679,
      "ti": 680,
      "s2": 681,
      "aIn": 682,
      "_rl_": 683,
      "77": 684,
      "ing": 685,
      "0000000h": 686,
      "ED": 687,
      "var_11": 688,
      "_fput": 689,
      "fd": 690,
      "ormat": 691,
      "ror": 692,
      "var_140": 693,
      "405": 694,
      "SourceC": 695,
      "419": 696,
      "aP": 697,
      "aFail": 698,
      "35": 699,
      "ter": 700,
      "_r": 701,
      "var_150": 702,
      "ype": 703,
      "EB": 704,
      "0Bh": 705,
      "1h": 706,
      "ab": 707,
      "arg": 708,
      "7F": 709,
      "var_138": 710,
      "76": 711,
      "7FFFh": 712,
      "AB": 713,
      "406": 714,
      "stdout": 715,
      "nptr": 716,
      "_e": 717,
      "li": 718,
      "_gsl_s": 719,
      "413": 720,
      "2D0": 721,
      "_co": 722,
      "__glp_mp": 723,
      "AE": 724,
      "1Ch": 725,
      "xmm6": 726,
      "CB": 727,
      "CF": 728,
      "_set": 729,
      "88": 730,
      "aB": 731,
      "name": 732,
      "aE": 733,
      "100h": 734,
      "AD": 735,
      "93": 736,
      "0E0h": 737,
      "aN": 738,
      "is": 739,
      "FEh": 740,
      "_1": 741,
      "var_148": 742,
      "_u": 743,
      "508": 744,
      "arg_8": 745,
      "B3": 746,
      "CD": 747,
      "_d": 748,
      "0FFFFFFFFFFFFFF": 749,
      "_t": 750,
      "2Fh": 751,
      "0B0h": 752,
      "_c": 753,
      "var_8C": 754,
      "format": 755,
      "62D": 756,
      "line": 757,
      "ut": 758,
      "val": 759,
      "aL": 760,
      "E9": 761,
      "428": 762,
      "_p": 763,
      "75": 764,
      "_rec_": 765,
      "670": 766,
      "F3": 767,
      "24h": 768,
      "74": 769,
      "6C8660": 770,
      "_gsl_sf": 771,
      "DA": 772,
      "ack": 773,
      "var_180": 774,
      "D9": 775,
      "B9": 776,
      "var_158": 777,
      "_st": 778,
      "var_160": 779,
      "412": 780,
      "DE": 781,
      "Al": 782,
      "415": 783,
      "BE": 784,
      "lename": 785,
      "98h": 786,
      "88h": 787,
      "F6": 788,
      "3Fh": 789,
      "A9": 790,
      "A3": 791,
      "xmm7": 792,
      "filename": 793,
      "62B": 794,
      "var_170": 795,
      "var_B4": 796,
      "var_29": 797,
      "var_94": 798,
      "1Fh": 799,
      "var_188": 800,
      "ctype": 801,
      "not": 802,
      "2B204h": 803,
      "618": 804,
      "0000h": 805,
      "36": 806,
      "a_": 807,
      "___ctype": 808,
      "31": 809,
      "rite": 810,
      "Alloc": 811,
      "var_168": 812,
      "ate": 813,
      "__glp_mpl_": 814,
      "aU": 815,
      "_strn": 816,
      "F1": 817,
      "ay": 818,
      "ie": 819,
      "Is": 820,
      "0A8h": 821,
      "edTo": 822,
      "env": 823,
      "_ex": 824,
      "95": 825,
      "_error": 826,
      "dx": 827,
      "F5": 828,
      "locret_41": 829,
      "aFailedTo": 830,
      "var_1A0": 831,
      "var_190": 832,
      "var_19": 833,
      "A7": 834,
      "),": 835,
      "aO": 836,
      "calloc": 837,
      "_calloc": 838,
      "_fputs": 839,
      "xmmword_2D": 840,
      "aT": 841,
      "ge": 842,
      "lock": 843,
      "var_198": 844,
      "2Dh": 845,
      "A5": 846,
      "780": 847,
      "402": 848,
      "ot": 849,
      "cmov": 850,
      "var_178": 851,
      "_buf": 852,
      "stat_buf": 853,
      "rt": 854,
      "0D0h": 855,
      "mple": 856,
      "osi": 857,
      "_strcpy": 858,
      "_ab": 859,
      "bl": 860,
      "pp": 861,
      "200h": 862,
      "64h": 863,
      "E5": 864,
      "aFailedToAlloc": 865,
      "BF": 866,
      "_b_loc": 867,
      "___ctype_b_loc": 868,
      "var_21": 869,
      "96": 870,
      "E7": 871,
      "7145": 872,
      "A1": 873,
      "5B8": 874,
      "EF": 875,
      "30FF": 876,
      "A6": 877,
      "D7": 878,
      "_abort": 879,
      "B5": 880,
      "var_1D0": 881,
      "var_A4": 882,
      "C7": 883,
      "read": 884,
      "lose": 885,
      "AF": 886,
      "9F": 887,
      "B7": 888,
      "arg_10": 889,
      "write": 890,
      "4FF": 891,
      "var_1A8": 892,
      "0E8": 893,
      "92": 894,
      "2B20Ch": 895,
      "D5": 896,
      "th": 897,
      "ro": 898,
      "st_": 899,
      "var_9C": 900,
      "E6": 901,
      "aFailedToAlloca_": 902,
      "0B8h": 903,
      "r13d": 904,
      "r8b": 905,
      "E3": 906,
      "lib": 907,
      "osip": 908,
      "0Dh": 909,
      "idiv": 910,
      "0C0h": 911,
      "D6": 912,
      "41F": 913,
      "0FFFFFFFEh": 914,
      "423": 915,
      "var_1B0": 916,
      "ce": 917,
      "DF": 918,
      "up": 919,
      "A2": 920,
      "s_ptr": 921,
      "450": 922,
      "0C8h": 923,
      "448": 924,
      "sd2": 925,
      "B2": 926,
      "rror": 927,
      "stack": 928,
      "var_DC": 929,
      "rol": 930,
      "7145B8": 931,
      "var_C4": 932,
      "C3": 933,
      "_strncmp": 934,
      "94": 935,
      "ust": 936,
      "po": 937,
      "aV": 938,
      "E1": 939,
      "91": 940,
      "2F8": 941,
      "ize": 942,
      "411": 943,
      "Eh": 944,
      "416": 945,
      "D3": 946,
      "2Ch": 947,
      "D1": 948,
      "5Ch": 949,
      "tbyte": 950,
      "__j": 951,
      "aW": 952,
      "var_1C0": 953,
      "sc": 954,
      "D2": 955,
      "B1": 956,
      "ase": 957,
      "E2": 958,
      "var_1C8": 959,
      "mplex": 960,
      "438": 961,
      "var_AC": 962,
      "ra": 963,
      "chr": 964,
      "locret_40": 965,
      "off_6": 966,
      "atrix": 967,
      "opt": 968,
      "ing_": 969,
      "C5": 970,
      "F2": 971,
      "445": 972,
      "Re": 973,
      "C9": 974,
      "_glp_free": 975,
      "3Ch": 976,
      "800000000": 977,
      "Dh": 978,
      "B6": 979,
      "cvtt": 980,
      "new": 981,
      "qrt": 982,
      "low": 983,
      "43F9": 984,
      "end": 985,
      "800h": 986,
      "ft": 987,
      "_sqrt": 988,
      "460": 989,
      "0Eh": 990,
      "Ind": 991,
      "FFFFFFFh": 992,
      "var_1E0": 993,
      "_strchr": 994,
      "430": 995,
      "be": 996,
      "buf": 997,
      "3h": 998,
      "2h": 999,
      "SS": 1000,
      "sd2si": 1001,
      "cvttsd2si": 1002,
      "C2": 1003,
      "off_4FF": 1004,
      "_printf": 1005,
      "478": 1006,
      "_lo": 1007,
      "file": 1008,
      "8000000000000000h": 1009,
      "16h": 1010,
      "fp": 1011,
      "110h": 1012,
      "C6": 1013,
      "Must": 1014,
      "27h": 1015,
      "Ah": 1016,
      "0F0h": 1017,
      "var_1D8": 1018,
      "_gsl_vector_free": 1019,
      "C1": 1020,
      "4C0": 1021,
      "6A8": 1022,
      "34h": 1023,
      "var_D4": 1024,
      "var_CC": 1025,
      "5h": 1026,
      "9h": 1027,
      "1Eh": 1028,
      "6h": 1029,
      "aH": 1030,
      "3Ah": 1031,
      "1C8": 1032,
      "_glp_alloc": 1033,
      "aMpl": 1034,
      "get": 1035,
      "690": 1036,
      "_put": 1037,
      "var_10C": 1038,
      "sl": 1039,
      "442": 1040,
      "458": 1041,
      "dil": 1042,
      "_rec": 1043,
      "468": 1044,
      "Of": 1045,
      "vs_ptr": 1046,
      "_rvs_ptr": 1047,
      "os": 1048,
      "500": 1049,
      "Mpl": 1050,
      "ile": 1051,
      "_fwrite": 1052,
      "wc": 1053,
      "19h": 1054,
      "FDh": 1055,
      "point": 1056,
      "num": 1057,
      "8000h": 1058,
      "uni": 1059,
      "Op": 1060,
      "ig": 1061,
      "638": 1062,
      "_gsl_vector_get": 1063,
      "xorpd": 1064,
      "Bh": 1065,
      "Index": 1066,
      "var_3D0": 1067,
      "0D8h": 1068,
      "it_": 1069,
      "var_1F0": 1070,
      "713": 1071,
      "var_1B8": 1072,
      "_glp_printf": 1073,
      "7h": 1074,
      "_reg": 1075,
      "blas": 1076,
      "Glp": 1077,
      "_in": 1078,
      "rl_point": 1079,
      "rl_point_ptr": 1080,
      "var_BC": 1081,
      "qu": 1082,
      "men": 1083,
      "1C0h": 1084,
      "rp": 1085,
      "var_1F8": 1086,
      "raft": 1087,
      "var_A": 1088,
      "var_FC": 1089,
      "_realloc": 1090,
      "443": 1091,
      "aDraft": 1092,
      "4Ch": 1093,
      "617": 1094,
      "la": 1095,
      "var_3E0": 1096,
      "7Fh": 1097,
      "1E0h": 1098,
      "var_1E8": 1099,
      "main": 1100,
      "aRe": 1101,
      "422": 1102,
      "ob": 1103,
      "4Eh": 1104,
      "ure": 1105,
      "aMplMpl": 1106,
      "var_31": 1107,
      "_un": 1108,
      "470": 1109,
      "400": 1110,
      "ue": 1111,
      "108": 1112,
      "open": 1113,
      "pi": 1114,
      "46C": 1115,
      "var_218": 1116,
      "0FF": 1117,
      "C4": 1118,
      "719": 1119,
      "_osip": 1120,
      "9999": 1121,
      "0F000h": 1122,
      "ath": 1123,
      "aDraftGlp": 1124,
      "629": 1125,
      "_fputc": 1126,
      "var_E4": 1127,
      "Di": 1128,
      "22h": 1129,
      "44h": 1130,
      "715": 1131,
      "mode": 1132,
      "var_228": 1133,
      "_2": 1134,
      "1000h": 1135,
      "2Eh": 1136,
      "9B0": 1137,
      "400h": 1138,
      "_i": 1139,
      "ield": 1140,
      "aMatrix": 1141,
      "annot": 1142,
      "190h": 1143,
      "var_EC": 1144,
      "39h": 1145,
      "2C0": 1146,
      "1B0h": 1147,
      "valid": 1148,
      "umn": 1149,
      "1F0h": 1150,
      "7Ch": 1151,
      "us": 1152,
      "__glp": 1153,
      "ist": 1154,
      "12h": 1155,
      "var_208": 1156,
      "rg": 1157,
      "11h": 1158,
      "B80": 1159,
      "118h": 1160,
      "aRow": 1161,
      "727": 1162,
      "db": 1163,
      "Error": 1164,
      "610": 1165,
      "6C66": 1166,
      "746": 1167,
      "endptr": 1168,
      "_gsl_matrix_get": 1169,
      "2000h": 1170,
      "sum": 1171,
      "_to": 1172,
      "425": 1173,
      "1A0h": 1174,
      "aFailure": 1175,
      "Co": 1176,
      "2E8": 1177,
      "ver": 1178,
      "0E8h": 1179,
      "106": 1180,
      "0F0": 1181,
      "xmmword_2C": 1182,
      "_strc": 1183,
      "6165": 1184,
      "mb": 1185,
      "_gsl_blas": 1186,
      "xmmword_2D0": 1187,
      "_gsl_vector_set": 1188,
      "var_210": 1189,
      "_exit": 1190,
      "427": 1191,
      "115": 1192,
      "mulss": 1193,
      "cmovn": 1194,
      "43C": 1195,
      "_lib": 1196,
      "gr": 1197,
      "char": 1198,
      "var_F4": 1199,
      "var_200": 1200,
      "unistr": 1201,
      "Out": 1202,
      "nal": 1203,
      "718": 1204,
      "_exp": 1205,
      "tion": 1206,
      "xsum": 1207,
      "omain": 1208,
      "625": 1209,
      "max": 1210,
      "0E830FF": 1211,
      "_a": 1212,
      "_h": 1213,
      "var_220": 1214,
      "6C0": 1215,
      "ess": 1216,
      "ke": 1217,
      "480": 1218,
      "61h": 1219,
      "4A8": 1220,
      "nprintf": 1221,
      "var_238": 1222,
      "580": 1223,
      "_gsl_stat": 1224,
      "_gsl_stats": 1225,
      "aGlp": 1226,
      "var_104": 1227,
      "sg": 1228,
      "62F": 1229,
      "180h": 1230,
      "61A": 1231,
      "42A": 1232,
      "308": 1233,
      "Be": 1234,
      "_l": 1235,
      "401": 1236,
      "42C": 1237,
      "var_32": 1238,
      "170h": 1239,
      "728": 1240,
      "var_39": 1241,
      "var_230": 1242,
      "1Dh": 1243,
      "oc": 1244,
      "aSS": 1245,
      "_close": 1246,
      "608": 1247,
      "4C8": 1248,
      "addss": 1249,
      "421": 1250,
      "FBh": 1251,
      "_libunistr": 1252,
      "_name": 1253,
      "error_": 1254,
      "980": 1255,
      "0F030FF": 1256,
      "free": 1257,
      "rep": 1258,
      "hay": 1259,
      "__rl_": 1260,
      "00000h": 1261,
      "haystack": 1262,
      "aInvalid": 1263,
      "_glp_error_": 1264,
      "1Ah": 1265,
      "uff": 1266,
      "var_240": 1267,
      "_fail": 1268,
      "2Bh": 1269,
      "aI": 1270,
      "per": 1271,
      "__jit_": 1272,
      "esse": 1273,
      "var_114": 1274,
      "1EE0": 1275,
      "locret_1": 1276,
      "200": 1277,
      "280": 1278,
      "4B0": 1279,
      "opti": 1280,
      "429": 1281,
      "aUn": 1282,
      "optind": 1283,
      "1Bh": 1284,
      "100": 1285,
      "74h": 1286,
      "var_248": 1287,
      "fild": 1288,
      "aNo": 1289,
      "maxlen": 1290,
      "ucomi": 1291,
      "aSub": 1292,
      "FAh": 1293,
      "locked": 1294,
      "Ex": 1295,
      "_sub": 1296,
      "89": 1297,
      "var_728": 1298,
      "ute": 1299,
      "210": 1300,
      "41h": 1301,
      "129": 1302,
      "asc_42": 1303,
      "aGsl": 1304,
      "_log": 1305,
      "21h": 1306,
      "_libunistring_": 1307,
      "var_41": 1308,
      "43A": 1309,
      "15h": 1310,
      "off_6C": 1311,
      "aCannot": 1312,
      "lower": 1313,
      "4F0": 1314,
      "150h": 1315,
      "msg": 1316,
      "2830": 1317,
      "r11b": 1318,
      "var_124": 1319,
      "close": 1320,
      "ng": 1321,
      "628": 1322,
      "0FFFF": 1323,
      "6C8780": 1324,
      "7195B8": 1325,
      "7155B8": 1326,
      "6130": 1327,
      "_x": 1328,
      "_mb": 1329,
      "6C6660": 1330,
      "490": 1331,
      "msgid": 1332,
      "54h": 1333,
      "var_12C": 1334,
      "ction": 1335,
      "_snprintf": 1336,
      "42E": 1337,
      "000000h": 1338,
      "ector": 1339,
      "5BF": 1340,
      "lu": 1341,
      "Not": 1342,
      "fadd": 1343,
      "61F": 1344,
      "ic": 1345,
      "ind": 1346,
      "42CF": 1347,
      "388": 1348,
      "_at": 1349,
      "_new": 1350,
      "A80": 1351,
      "off_50": 1352,
      "42CA": 1353,
      "he": 1354,
      "1D0h": 1355,
      "var_250": 1356,
      "4000h": 1357,
      "43FE": 1358,
      "130h": 1359,
      "aS_": 1360,
      "rr": 1361,
      "locret_2": 1362,
      "0B4h": 1363,
      "np": 1364,
      "t_fail": 1365,
      "___asser": 1366,
      "___assert_fail": 1367,
      "xmmword_2D1EE0": 1368,
      "xmmword_2D2830": 1369,
      "xmmword_2C6130": 1370,
      "xmmword_2D09B0": 1371,
      "aApi": 1372,
      "558": 1373,
      "_gsl_blas_d": 1374,
      "46B8": 1375,
      "646": 1376,
      "_field": 1377,
      "6Ch": 1378,
      "var_11C": 1379,
      "25h": 1380,
      "_sin": 1381,
      "42B": 1382,
      "65h": 1383,
      "ldq": 1384,
      "psh": 1385,
      "addpd": 1386,
      "subpd": 1387,
      "punp": 1388,
      "ufd": 1389,
      "ckldq": 1390,
      "pshufd": 1391,
      "punpckldq": 1392,
      "2C5E": 1393,
      "col": 1394,
      "gth": 1395,
      "lush": 1396,
      "ory": 1397,
      "488": 1398,
      "value": 1399,
      "3Dh": 1400,
      "time": 1401,
      "2F0": 1402,
      "43FC": 1403,
      "2D25": 1404,
      "138": 1405,
      "IO": 1406,
      "var_258": 1407,
      "6Eh": 1408,
      "4F8": 1409,
      "1E0": 1410,
      "ry": 1411,
      "2D1B": 1412,
      "1C0": 1413,
      "var_3D8": 1414,
      "obstack": 1415,
      "optarg": 1416,
      "uffer": 1417,
      "61B": 1418,
      "44C": 1419,
      "2Ah": 1420,
      "Nul": 1421,
      "Len": 1422,
      "0F030FFFAh": 1423,
      "var_278": 1424,
      "__IO": 1425,
      "faddp": 1426,
      "var_2A": 1427,
      "44D": 1428,
      "140h": 1429,
      "xmm8": 1430,
      "path": 1431,
      "_ff": 1432,
      "aCo": 1433,
      "0FFFFFFFFFFFFFFFEh": 1434,
      "4058": 1435,
      "dbm": 1436,
      "_flo": 1437,
      "433": 1438,
      "44B": 1439,
      "_fflush": 1440,
      "iew": 1441,
      "ator": 1442,
      "var_13C": 1443,
      "neg": 1444,
      "4068": 1445,
      "xmm9": 1446,
      "cmovnz": 1447,
      "memb": 1448,
      "4A0": 1449,
      "6D0": 1450,
      "of": 1451,
      "rdup": 1452,
      "43B": 1453,
      "9Ch": 1454,
      "nmemb": 1455,
      "45C": 1456,
      "4069": 1457,
      "ng_": 1458,
      "7FFFFFFFh": 1459,
      "var_260": 1460,
      "708": 1461,
      "gram": 1462,
      "439": 1463,
      "4E0": 1464,
      "42CF44": 1465,
      "var_15": 1466,
      "Size": 1467,
      "MustBe": 1468,
      "440": 1469,
      "42D106": 1470,
      "42D5BF": 1471,
      "42D1C8": 1472,
      "43FE60": 1473,
      "43F950": 1474,
      "43FC70": 1475,
      "94h": 1476,
      "2C8": 1477,
      "var_12": 1478,
      "var_51": 1479,
      "380": 1480,
      "42CA5C": 1481,
      "43F940": 1482,
      "000": 1483,
      "tp": 1484,
      "453": 1485,
      "gsl_": 1486,
      "168": 1487,
      "rpl_": 1488,
      "17h": 1489,
      "vi": 1490,
      "6D2": 1491,
      "_w": 1492,
      "_strcat": 1493,
      "r9b": 1494,
      "180": 1495,
      "_gdbm": 1496,
      "IndexIs": 1497,
      "0FFFFFFFFFFFFFF80h": 1498,
      "St": 1499,
      "4047": 1500,
      "block": 1501,
      "subss": 1502,
      "__jit": 1503,
      "_3": 1504,
      "to": 1505,
      "mpt": 1506,
      "ec": 1507,
      "4B8": 1508,
      "var_398": 1509,
      "art": 1510,
      "_state": 1511,
      "30FE": 1512,
      "gC": 1513,
      "node": 1514,
      "nt": 1515,
      "_alloc": 1516,
      "6Fh": 1517,
      "locret_42": 1518,
      "mset": 1519,
      "498": 1520,
      "62A": 1521,
      "0F8h": 1522,
      "4D0": 1523,
      "olumn": 1524,
      "var_154": 1525,
      "a1": 1526,
      "43E": 1527,
      "44E": 1528,
      "270h": 1529,
      "6BF": 1530,
      "anf": 1531,
      "220h": 1532,
      "0FFFFFF80h": 1533,
      "setnbe": 1534,
      "2E0": 1535,
      "64A": 1536,
      "5Fh": 1537,
      "stdout_ptr": 1538,
      "_sy": 1539,
      "F0h": 1540,
      "key": 1541,
      "r10b": 1542,
      "788": 1543,
      "istory": 1544,
      "FF0": 1545,
      "6C6B": 1546,
      "160h": 1547,
      "3Eh": 1548,
      "5C0": 1549,
      "613": 1550,
      "__glp_d": 1551,
      "45E": 1552,
      "arg_18": 1553,
      "40C8": 1554,
      "_fclose": 1555,
      "base": 1556,
      "aInit": 1557,
      "errnum": 1558,
      "_get_": 1559,
      "Arg": 1560,
      "aCh": 1561,
      "stderr_ptr": 1562,
      "128": 1563,
      "4127": 1564,
      "4158": 1565,
      "40F0": 1566,
      "_putc": 1567,
      "188": 1568,
      "405E": 1569,
      "84h": 1570,
      "619": 1571,
      "120h": 1572,
      "a0": 1573,
      "280h": 1574,
      "4050": 1575,
      "A08": 1576,
      "44F": 1577,
      "age": 1578,
      "linal": 1579,
      "cq": 1580,
      "cqo": 1581,
      "ur": 1582,
      "_gsl_linal": 1583,
      "fmul": 1584,
      "_strdup": 1585,
      "F80": 1586,
      "108h": 1587,
      "_sig": 1588,
      "var_22C": 1589,
      "44A": 1590,
      "Fail": 1591,
      "var_3E8": 1592,
      "D80": 1593,
      "lag": 1594,
      "aX": 1595,
      "st_mode": 1596,
      "var_2B0": 1597,
      "_rec_mset": 1598,
      "4053": 1599,
      "2C5E48": 1600,
      "426": 1601,
      "12C": 1602,
      "43D": 1603,
      "2D1BF8": 1604,
      "2D06C8": 1605,
      "2D2548": 1606,
      "sion": 1607,
      "_n": 1608,
      "aError": 1609,
      "Null": 1610,
      "2d": 1611,
      "var_268": 1612,
      "414A": 1613,
      "off_500": 1614,
      "120": 1615,
      "73F": 1616,
      "E80": 1617,
      "_tolower": 1618,
      "__IO_putc": 1619,
      "E2F": 1620,
      "off_63": 1621,
      "scanf": 1622,
      "46D": 1623,
      "668": 1624,
      "var_134": 1625,
      "tim": 1626,
      "_buffer": 1627,
      "449": 1628,
      "var_270": 1629,
      "var_22": 1630,
      "_strerror": 1631,
      "406C": 1632,
      "530": 1633,
      "6CCE": 1634,
      "30000000h": 1635,
      "45D": 1636,
      "404C": 1637,
      "___is": 1638,
      "402D": 1639,
      "3FFh": 1640,
      "447": 1641,
      "288": 1642,
      "File": 1643,
      "4043": 1644,
      "implex": 1645,
      "23h": 1646,
      "7FFFFFFFF": 1647,
      "list": 1648,
      "32h": 1649,
      "6A9C": 1650,
      "aDe": 1651,
      "nu": 1652,
      "4060": 1653,
      "441": 1654,
      "42F": 1655,
      "off_6A": 1656,
      "4057": 1657,
      "45F": 1658,
      "Failed": 1659,
      "404B": 1660,
      "406D": 1661,
      "_row": 1662,
      "45A": 1663,
      "40B0": 1664,
      "mod": 1665,
      "pro": 1666,
      "Pro": 1667,
      "aRowcol": 1668,
      "aRowcolSourceC": 1669,
      "1CC": 1670,
      "eck": 1671,
      "437": 1672,
      "29h": 1673,
      "rl_line": 1674,
      "45B": 1675,
      "var_59": 1676,
      "406B": 1677,
      "340h": 1678,
      "1B0": 1679,
      "_fun": 1680,
      "406E": 1681,
      "405B": 1682,
      "680": 1683,
      "110": 1684,
      "_cos": 1685,
      "aSt": 1686,
      "404A": 1687,
      "mmand": 1688,
      "405A": 1689,
      "ent": 1690,
      "fildes": 1691,
      "rl_line_buffer": 1692,
      "4063": 1693,
      "40D8": 1694,
      "4065": 1695,
      "readline": 1696,
      "De": 1697,
      "4055": 1698,
      "4098": 1699,
      "_pow": 1700,
      "4088": 1701,
      "66h": 1702,
      "able": 1703,
      "76h": 1704,
      "_gsl_sf_b": 1705,
      "var_820": 1706,
      "_getenv": 1707,
      "406A": 1708,
      "62E": 1709,
      "cw": 1710,
      "FCh": 1711,
      "locret_10": 1712,
      "4046": 1713,
      "rl_readline": 1714,
      "amm": 1715,
      "aQ": 1716,
      "40E8": 1717,
      "208": 1718,
      "_v": 1719,
      "62B8": 1720,
      "var_288": 1721,
      "con": 1722,
      "_gsl_linalg_": 1723,
      "2D0h": 1724,
      "_state_ptr": 1725,
      "rl_readline_state_ptr": 1726,
      "utex": 1727,
      "var_290": 1728,
      "40E0": 1729,
      "3FF": 1730,
      "40F8": 1731,
      "var_298": 1732,
      "atch": 1733,
      "essel_": 1734,
      "aInitSourceC": 1735,
      "_gsl_sf_bessel_": 1736,
      "404D": 1737,
      "4059": 1738,
      "47A": 1739,
      "7Eh": 1740,
      "403D": 1741,
      "rl_line_buffer_ptr": 1742,
      "46A": 1743,
      "4E8": 1744,
      "rom": 1745,
      "_de": 1746,
      "8Ch": 1747,
      "var_280": 1748,
      "50CE": 1749,
      "C80": 1750,
      "comp": 1751,
      "4078": 1752,
      "43F": 1753,
      "72h": 1754,
      "_gsl_matrix_set": 1755,
      "4048": 1756,
      "6916": 1757,
      "1D0": 1758,
      "210h": 1759,
      "4099": 1760,
      "415E": 1761,
      "230": 1762,
      "270": 1763,
      "46E": 1764,
      "473": 1765,
      "4070": 1766,
      "25B": 1767,
      "6DF": 1768,
      "ber": 1769,
      "4042": 1770,
      "404E": 1771,
      "_ch": 1772,
      "4067": 1773,
      "6F0": 1774,
      "4045": 1775,
      "435": 1776,
      "688": 1777,
      "220": 1778,
      "aSimplex": 1779,
      "40BC": 1780,
      "aFailure_": 1781,
      "_libunistring_xsum": 1782,
      "6709": 1783,
      "4038": 1784,
      "_complex": 1785,
      "aView": 1786,
      "290": 1787,
      "2A0": 1788,
      "domain": 1789,
      "var_164": 1790,
      "50873F": 1791,
      "508E2F": 1792,
      "50CEFF": 1793,
      "aMplMpl3C": 1794,
      "12B": 1795,
      "var_448": 1796,
      "10000h": 1797,
      "5086BF": 1798,
      "Un": 1799,
      "620": 1800,
      "4F7": 1801,
      "thread": 1802,
      "4138": 1803,
      "403A": 1804,
      "cvtss": 1805,
      "cvtss2sd": 1806,
      "72C": 1807,
      "403E": 1808,
      "2D8": 1809,
      "170": 1810,
      "45h": 1811,
      "unget": 1812,
      "63h": 1813,
      "2E0h": 1814,
      "73h": 1815,
      "fmulp": 1816,
      "4118": 1817,
      "Npp": 1818,
      "Me": 1819,
      "api": 1820,
      "46B": 1821,
      "__jit_get": 1822,
      "aEx": 1823,
      "_unlocked": 1824,
      "asb": 1825,
      "scasb": 1826,
      "repne": 1827,
      "_gsl_matrix_sub": 1828,
      "__jit_get_reg": 1829,
      "4090": 1830,
      "6718": 1831,
      "No": 1832,
      "130": 1833,
      "var_2B8": 1834,
      "63BC": 1835,
      "40C0": 1836,
      "588": 1837,
      "fldz": 1838,
      "459": 1839,
      "locret_5": 1840,
      "pper": 1841,
      "2B0": 1842,
      "var_49": 1843,
      "713B": 1844,
      "Length": 1845,
      "40A8": 1846,
      "47C": 1847,
      "404F": 1848,
      "190": 1849,
      "sp": 1850,
      "_ato": 1851,
      "wap": 1852,
      "670A": 1853,
      "411C": 1854,
      "6C6": 1855,
      "_gsl_matrix_free": 1856,
      "move": 1857,
      "_con": 1858,
      "_gsl_block": 1859,
      "cord": 1860,
      "457": 1861,
      "479": 1862,
      "6E0": 1863,
      "402E": 1864,
      "6A5C": 1865,
      "__jit_unget": 1866,
      "__jit_unget_reg": 1867,
      "268": 1868,
      "_u8": 1869,
      "2A8": 1870,
      "wk": 1871,
      "207": 1872,
      "ug": 1873,
      "560": 1874,
      "DE8": 1875,
      "Option": 1876,
      "69h": 1877,
      "260h": 1878,
      "4D8": 1879,
      "_fi": 1880,
      "var_144": 1881,
      "Set": 1882,
      "477": 1883,
      "cc": 1884,
      "var_2A0": 1885,
      "410E": 1886,
      "407B": 1887,
      "50D": 1888,
      "Ha": 1889,
      "pwc": 1890,
      "_floor": 1891,
      "46h": 1892,
      "malloc": 1893,
      "4123": 1894,
      "639": 1895,
      "status": 1896,
      "_tr": 1897,
      "ios": 1898,
      "40F7": 1899,
      "Sf": 1900,
      "aSe": 1901,
      "__glp_f": 1902,
      "5Ah": 1903,
      "var_174": 1904,
      "wn": 1905,
      "40D0": 1906,
      "64B": 1907,
      "Con": 1908,
      "4129": 1909,
      "Ne": 1910,
      "6CB": 1911,
      "_mutex": 1912,
      "lineptr": 1913,
      "4029": 1914,
      "40B8": 1915,
      "1F8h": 1916,
      "var_5C8": 1917,
      "4153": 1918,
      "ace": 1919,
      "405C": 1920,
      "6CB3": 1921,
      "aColumn": 1922,
      "119": 1923,
      "47D": 1924,
      "0E830FFFBh": 1925,
      "form": 1926,
      "4110": 1927,
      "463": 1928,
      "aGslSf": 1929,
      "tro": 1930,
      "47E": 1931,
      "aInt": 1932,
      "var_184": 1933,
      "42h": 1934,
      "aNpp": 1935,
      "260": 1936,
      "ran": 1937,
      "455": 1938,
      "1A0": 1939,
      "F8h": 1940,
      "4157": 1941,
      "aMi": 1942,
      "Mi": 1943,
      "isc": 1944,
      "var_1D": 1945,
      "7FFFFFFFFFFFFFFFh": 1946,
      "469": 1947,
      "aVector": 1948,
      "300": 1949,
      "6250": 1950,
      "terp": 1951,
      "40A0": 1952,
      "4161": 1953,
      "2EB": 1954,
      "1ED": 1955,
      "1D8": 1956,
      "4108": 1957,
      "600": 1958,
      "gn": 1959,
      "cmovz": 1960,
      "var_14C": 1961,
      "4128": 1962,
      "gettext": 1963,
      "4148": 1964,
      "402A": 1965,
      "__glp_mpl_error": 1966,
      "412A": 1967,
      "403C": 1968,
      "need": 1969,
      "px": 1970,
      "113": 1971,
      "0FFFFFFD": 1972,
      "By": 1973,
      "_fopen": 1974,
      "attr": 1975,
      "46F": 1976,
      "4170": 1977,
      "34D": 1978,
      "rset": 1979,
      "40EE": 1980,
      "aSimplexS": 1981,
      "6C6C": 1982,
      "4125": 1983,
      "26h": 1984,
      "47B": 1985,
      "aDraftGlpapi": 1986,
      "aGet": 1987,
      "17B": 1988,
      "6168": 1989,
      "Val": 1990,
      "405D": 1991,
      "250h": 1992,
      "520": 1993,
      "67h": 1994,
      "408C": 1995,
      "var_25": 1996,
      "2D2D": 1997,
      "terator": 1998,
      "4100": 1999,
      "var_2A8": 2000,
      "var_810": 2001,
      "407A": 2002,
      "4AD": 2003,
      "4037": 2004,
      "2065": 2005,
      "_strto": 2006,
      "ag": 2007,
      "41FF": 2008,
      "off_25": 2009,
      "4049": 2010,
      "Matrix": 2011,
      "opy": 2012,
      "asc_41C": 2013,
      "403B": 2014,
      "_size": 2015,
      "_sex": 2016,
      "54C": 2017,
      "4120": 2018,
      "ten": 2019,
      "pt": 2020,
      "_4": 2021,
      "390": 2022,
      "475": 2023,
      "aFile": 2024,
      "ucomiss": 2025,
      "4020": 2026,
      "cond": 2027,
      "9E00": 2028,
      "4137": 2029,
      "631": 2030,
      "127": 2031,
      "var_500": 2032,
      "var_2C0": 2033,
      "sa": 2034,
      "rit": 2035,
      "chunk": 2036,
      "_newchunk": 2037,
      "obstack_newchunk": 2038,
      "ternal": 2039,
      "510": 2040,
      "atal": 2041,
      "BFh": 2042,
      "13C": 2043,
      "asc_4BF": 2044,
      "52C": 2045,
      "aDD": 2046,
      "iv": 2047,
      "6A3": 2048,
      "12A": 2049,
      "_u16": 2050,
      "map": 2051,
      "250": 2052,
      "B88": 2053,
      "E88": 2054,
      "D88": 2055,
      "1724h": 2056,
      "600h": 2057,
      "417A": 2058,
      "_rec_field": 2059,
      "40FF": 2060,
      "549": 2061,
      "0FFFFFFFFFFFFFFFDh": 2062,
      "2ss": 2063,
      "548": 2064,
      "cvtsi2ss": 2065,
      "Use": 2066,
      "623": 2067,
      "ange": 2068,
      "410h": 2069,
      "6A0": 2070,
      "40DE": 2071,
      "__glp_format": 2072,
      "62C": 2073,
      "erm": 2074,
      "40FC": 2075,
      "var_800": 2076,
      "4039": 2077,
      "402B": 2078,
      "fucomi": 2079,
      "413A": 2080,
      "aNppNpp": 2081,
      "df": 2082,
      "40F9": 2083,
      "409D": 2084,
      "4139": 2085,
      "467": 2086,
      "7Ah": 2087,
      "412C": 2088,
      "var_15C": 2089,
      "var_3A0": 2090,
      "456": 2091,
      "4149": 2092,
      "4CF": 2093,
      "c_ptr": 2094,
      "679A": 2095,
      "411E": 2096,
      "54A": 2097,
      "4147": 2098,
      "410A": 2099,
      "2D1F": 2100,
      "116": 2101,
      "fprintf": 2102,
      "43h": 2103,
      "40AA": 2104,
      "uld": 2105,
      "50CB": 2106,
      "398": 2107,
      "Max": 2108,
      "4028": 2109,
      "40DB": 2110,
      "5Eh": 2111,
      "298": 2112,
      "reate": 2113,
      "_glp_set": 2114,
      "c_un": 2115,
      "5Dh": 2116,
      "503": 2117,
      "616508": 2118,
      "oC": 2119,
      "realloc": 2120,
      "off_42": 2121,
      "var_318": 2122,
      "40FE": 2123,
      "Num": 2124,
      "command": 2125,
      "409A": 2126,
      "fucomip": 2127,
      "453E": 2128,
      "4190": 2129,
      "var_2F8": 2130,
      "211": 2131,
      "record": 2132,
      "4030": 2133,
      "var_19C": 2134,
      "5Bh": 2135,
      "639E00": 2136,
      "63BC68": 2137,
      "var_3A": 2138,
      "4178": 2139,
      "118": 2140,
      "1F0": 2141,
      "452": 2142,
      "ib": 2143,
      "402F": 2144,
      "590": 2145,
      "ht": 2146,
      "OutO": 2147,
      "4027": 2148,
      "_des": 2149,
      "528": 2150,
      "aSwap": 2151,
      "_gsl_vector_memcpy": 2152,
      "fsub": 2153,
      "3Bh": 2154,
      "needle": 2155,
      "109": 2156,
      "Dimen": 2157,
      "var_2D0": 2158,
      "4BF": 2159,
      "off_62": 2160,
      "iz": 2161,
      "_iterator": 2162,
      "_rec_mset_iterator": 2163,
      "6164C0": 2164,
      "6167": 2165,
      "IndexIsO": 2166,
      "1EC": 2167,
      "2D5": 2168,
      "Lin": 2169,
      "432": 2170,
      "409E": 2171,
      "4167": 2172,
      "3A0": 2173,
      "4160": 2174,
      "4155": 2175,
      "modes": 2176,
      "aDraftGlpios": 2177,
      "aViewSourceC": 2178,
      "aSwapSourceC": 2179,
      "aDraftGlpios0": 2180,
      "4116": 2181,
      "var_308": 2182,
      "B08": 2183,
      "008": 2184,
      "ale": 2185,
      "_strncpy": 2186,
      "0FFFFFFDFh": 2187,
      "_fread": 2188,
      "var_13": 2189,
      "oc99": 2190,
      "___isoc99": 2191,
      "tv": 2192,
      "6CC": 2193,
      "4CC": 2194,
      "var_214": 2195,
      "6316": 2196,
      "Read": 2197,
      "var_35": 2198,
      "nown": 2199,
      "0E830FE": 2200,
      "ote": 2201,
      "rst": 2202,
      "80000h": 2203,
      "var_808": 2204,
      "6F7": 2205,
      "4188": 2206,
      "4080": 2207,
      "6666": 2208,
      "AAAA": 2209,
      "40AC": 2210,
      "var_1A": 2211,
      "cwde": 2212,
      "history": 2213,
      "var_D": 2214,
      "3D0": 2215,
      "10C": 2216,
      "550": 2217,
      "var_5E0": 2218,
      "4130": 2219,
      "40EA": 2220,
      "40FD": 2221,
      "var_69": 2222,
      "Row": 2223,
      "var_16C": 2224,
      "_signal": 2225,
      "quote": 2226,
      "410B": 2227,
      "_rec_record": 2228,
      "10A": 2229,
      "setSourceC": 2230,
      "old": 2231,
      "40DD": 2232,
      "407E": 2233,
      "aSy": 2234,
      "4150": 2235,
      "0000000000000h": 2236,
      "414C": 2237,
      "320": 2238,
      "10E": 2239,
      "123": 2240,
      "553": 2241,
      "mx": 2242,
      "var_598": 2243,
      "var_8A0": 2244,
      "249": 2245,
      "630": 2246,
      "ac": 2247,
      "MustHa": 2248,
      "__glp_dmx": 2249,
      "A88": 2250,
      "_col": 2251,
      "_dgettext": 2252,
      "160": 2253,
      "Do": 2254,
      "fin": 2255,
      "dir": 2256,
      "1B8": 2257,
      "complex": 2258,
      "2545": 2259,
      "1720h": 2260,
      "4142": 2261,
      "var_3B8": 2262,
      "4117": 2263,
      "51E": 2264,
      "52A": 2265,
      "fdiv": 2266,
      "10D": 2267,
      "67A": 2268,
      "4044": 2269,
      "var_61": 2270,
      "par": 2271,
      "650": 2272,
      "412B": 2273,
      "_pthread": 2274,
      "54D": 2275,
      "525": 2276,
      "F60": 2277,
      "On": 2278,
      "410D": 2279,
      "mbol": 2280,
      "var_320": 2281,
      "412D": 2282,
      "4200": 2283,
      "277": 2284,
      "55h": 2285,
      "408D": 2286,
      "var_450": 2287,
      "var_55": 2288,
      "2EE": 2289,
      "519": 2290,
      "var_E": 2291,
      "40CA": 2292,
      "aOut": 2293,
      "26C": 2294,
      "40FB": 2295,
      "ata": 2296,
      "var_388": 2297,
      "99999999": 2298,
      "9C0": 2299,
      "6915": 2300,
      "40DA": 2301,
      "40CC": 2302,
      "_u32": 2303,
      "411A": 2304,
      "var_2D8": 2305,
      "_memcmp": 2306,
      "aFi": 2307,
      "40CB": 2308,
      "240": 2309,
      "Lo": 2310,
      "6C8668": 2311,
      "691698": 2312,
      "_open": 2313,
      "amma": 2314,
      "570": 2315,
      "locret_41E": 2316,
      "rch": 2317,
      "domainname": 2318,
      "408E": 2319,
      "988": 2320,
      "40EB": 2321,
      "318": 2322,
      "7C0": 2323,
      "arn": 2324,
      "4BC": 2325,
      "_rec_sex": 2326,
      "4023": 2327,
      "11C": 2328,
      "358h": 2329,
      "4025": 2330,
      "4145": 2331,
      "xmm10": 2332,
      "inC": 2333,
      "12F": 2334,
      "278": 2335,
      "aDDh": 2336,
      "11A": 2337,
      "6CAE": 2338,
      "125": 2339,
      "asecmp": 2340,
      "290h": 2341,
      "link": 2342,
      "4119": 2343,
      "415B": 2344,
      "414F": 2345,
      "var_5E4": 2346,
      "var_2D": 2347,
      "aMisc": 2348,
      "aBf": 2349,
      "31h": 2350,
      "411B": 2351,
      "umen": 2352,
      "41C8": 2353,
      "var_300": 2354,
      "var_18C": 2355,
      "_ar": 2356,
      "_char": 2357,
      "var_330": 2358,
      "13A": 2359,
      "4DE": 2360,
      "269": 2361,
      "40DC": 2362,
      "rm": 2363,
      "4113": 2364,
      "402C": 2365,
      "6D2388": 2366,
      "F7h": 2367,
      "aIntopt": 2368,
      "411F": 2369,
      "Err": 2370,
      "var_B": 2371,
      "408A": 2372,
      "518": 2373,
      "u_": 2374,
      "12D": 2375,
      "var_33": 2376,
      "var_310": 2377,
      "49h": 2378,
      "40FA": 2379,
      "argv": 2380,
      "4DA": 2381,
      "Gsl": 2382,
      "407C": 2383,
      "52F": 2384,
      "26A": 2385,
      "360": 2386,
      "aBflib": 2387,
      "4089": 2388,
      "flow": 2389,
      "lete": 2390,
      "61B8": 2391,
      "troy": 2392,
      "_node": 2393,
      "265": 2394,
      "760": 2395,
      "26D": 2396,
      "6B0": 2397,
      "6643": 2398,
      "_puts": 2399,
      "52D": 2400,
      "413C": 2401,
      "4DD": 2402,
      "E08": 2403,
      "timer": 2404,
      "140": 2405,
      "529": 2406,
      "aGslGsl": 2407,
      "aReg": 2408,
      "568": 2409,
      "5F8h": 2410,
      "0FFFDh": 2411,
      "ken": 2412,
      "10B": 2413,
      "_read": 2414,
      "F894h": 2415,
      "aPro": 2416,
      "var_2C8": 2417,
      "6397": 2418,
      "cmovbe": 2419,
      "var_17C": 2420,
      "var_840": 2421,
      "47F": 2422,
      "4143": 2423,
      "aZ": 2424,
      "known": 2425,
      "4Bh": 2426,
      "D08": 2427,
      "79h": 2428,
      "2ED": 2429,
      "var_370": 2430,
      "_set_": 2431,
      "6CB3BC": 2432,
      "C08": 2433,
      "609B": 2434,
      "40CE": 2435,
      "essel": 2436,
      "Prob": 2437,
      "ext": 2438,
      "aFatal": 2439,
      "program": 2440,
      "412E": 2441,
      "414B": 2442,
      "446": 2443,
      "Se": 2444,
      "49B": 2445,
      "_destroy": 2446,
      "back": 2447,
      "stdin": 2448,
      "4115": 2449,
      "4FC": 2450,
      "6A32": 2451,
      "40EC": 2452,
      "locale": 2453,
      "_list": 2454,
      "aColumnIndexIsO": 2455,
      "aGetsetSourceC": 2456,
      "lem": 2457,
      "412F": 2458,
      "211F8h": 2459,
      "504": 2460,
      "__glp_s": 2461,
      "405F": 2462,
      "locret_43": 2463,
      "oupper": 2464,
      "54B": 2465,
      "locret_418": 2466,
      "off_6A2C": 2467,
      "11B": 2468,
      "54E": 2469,
      "390h": 2470,
      "ci": 2471,
      "_sscanf": 2472,
      "4Dh": 2473,
      "416C": 2474,
      "aBl": 2475,
      "158": 2476,
      "yp": 2477,
      "var_3A8": 2478,
      "414D": 2479,
      "setle": 2480,
      "7FF": 2481,
      "var_3B0": 2482,
      "5F0": 2483,
      "41B8": 2484,
      "26F": 2485,
      "86A": 2486,
      "tes": 2487,
      "aDi": 2488,
      "ive": 2489,
      "ode": 2490,
      "4198": 2491,
      "stru_": 2492,
      "48D": 2493,
      "aK": 2494,
      "arg_20": 2495,
      "_gsl_sf_l": 2496,
      "aMatrixSize": 2497,
      "eval": 2498,
      "2B8": 2499,
      "var_2F0": 2500,
      "exec": 2501,
      "aAwk": 2502,
      "640": 2503,
      "409C": 2504,
      "52B": 2505,
      "ulti": 2506,
      "_is": 2507,
      "var_7D0": 2508,
      "c_unlocked": 2509,
      "407D": 2510,
      "57h": 2511,
      "178": 2512,
      "11D": 2513,
      "48E": 2514,
      "527": 2515,
      "_add": 2516,
      "_int": 2517,
      "40AB": 2518,
      "_rec_rset": 2519,
      "5A8": 2520,
      "56C": 2521,
      "410F": 2522,
      "2EC": 2523,
      "408B": 2524,
      "218": 2525,
      "401E": 2526,
      "0FFFFFFFFFFFF": 2527,
      "63B": 2528,
      "locret_19": 2529,
      "__obstack_newchunk": 2530,
      "413E": 2531,
      "228": 2532,
      "5E0": 2533,
      "607": 2534,
      "4AC": 2535,
      "411D": 2536,
      "4162": 2537,
      "ound": 2538,
      "aw": 2539,
      "_gsl_mul": 2540,
      "var_328": 2541,
      "41A0": 2542,
      "4168": 2543,
      "ard": 2544,
      "leno": 2545,
      "_fileno": 2546,
      "_mul": 2547,
      "term": 2548,
      "7FFh": 2549,
      "0D8": 2550,
      "8A": 2551,
      "___isoc99_sscanf": 2552,
      "51B": 2553,
      "Vector": 2554,
      "var_194": 2555,
      "1F8": 2556,
      "_ferror": 2557,
      "4AE": 2558,
      "40CD": 2559,
      "var_458": 2560,
      "413B": 2561,
      "413D": 2562,
      "4A7": 2563,
      "4DC": 2564,
      "_toupper": 2565,
      "Par": 2566,
      "403F": 2567,
      "UC": 2568,
      "17A": 2569,
      "Name": 2570,
      "asc_4BF0": 2571,
      "48A": 2572,
      "61E": 2573,
      "fo": 2574,
      "4FB": 2575,
      "3B0": 2576,
      "499": 2577,
      "25A": 2578,
      "aSimplexSpx": 2579,
      "415C": 2580,
      "_glp_get": 2581,
      "540": 2582,
      "var_340": 2583,
      "414E": 2584,
      "act": 2585,
      "63E": 2586,
      "1DC": 2587,
      "locret_16": 2588,
      "essage": 2589,
      "And": 2590,
      "40AE": 2591,
      "80000000h": 2592,
      "416A": 2593,
      "370": 2594,
      "7B0": 2595,
      "_gsl_per": 2596,
      "_gsl_perm": 2597,
      "var_79": 2598,
      "267": 2599,
      "29C": 2600,
      "_line": 2601,
      "ssing": 2602,
      "var_588": 2603,
      "F08": 2604,
      "13B": 2605,
      "8Bh": 2606,
      "oot": 2607,
      "12E": 2608,
      "419C": 2609,
      "aSecond": 2610,
      "3E0": 2611,
      "He": 2612,
      "var_350": 2613,
      "48C": 2614,
      "dirp": 2615,
      "6317": 2616,
      "A70": 2617,
      "pl_": 2618,
      "___osip": 2619,
      "var_5B": 2620,
      "4EF": 2621,
      "40BB": 2622,
      "locret_4C": 2623,
      "1100": 2624,
      "4146": 2625,
      "1A8": 2626,
      "320h": 2627,
      "movd": 2628,
      "2BC": 2629,
      "523": 2630,
      "fun": 2631,
      "asC": 2632,
      "138h": 2633,
      "0A4h": 2634,
      "reg": 2635,
      "next": 2636,
      "bytes": 2637,
      "4EC": 2638,
      "2AE": 2639,
      "var_1B4": 2640,
      "16C": 2641,
      "11E": 2642,
      "230h": 2643,
      "_scal": 2644,
      "300h": 2645,
      "var_3C8": 2646,
      "1DD": 2647,
      "417C": 2648,
      "_gsl_vector_alloc": 2649,
      "l_get": 2650,
      "16E": 2651,
      "init": 2652,
      "pend": 2653,
      "62h": 2654,
      "ong": 2655,
      "_strcasecmp": 2656,
      "26B": 2657,
      "4BE": 2658,
      "aUs": 2659,
      "56D": 2660,
      "npp": 2661,
      "436": 2662,
      "__glp_npp": 2663,
      "8F": 2664,
      "_key": 2665,
      "ual": 2666,
      "4FE": 2667,
      "40ED": 2668,
      "51A": 2669,
      "locret_46": 2670,
      "679": 2671,
      "var_380": 2672,
      "4087": 2673,
      "415A": 2674,
      "41AC": 2675,
      "6716": 2676,
      "476": 2677,
      "mean": 2678,
      "aWrit": 2679,
      "_gsl_matrix_submatrix": 2680,
      "217": 2681,
      "4163": 2682,
      "49D": 2683,
      "40BE": 2684,
      "168h": 2685,
      "4EE": 2686,
      "exp": 2687,
      "10F": 2688,
      "4E3": 2689,
      "locret_40D": 2690,
      "4CB": 2691,
      "4077": 2692,
      "_long_": 2693,
      "2FA": 2694,
      "4AB": 2695,
      "enC": 2696,
      "148": 2697,
      "aCon": 2698,
      "_gsl_sf_exp": 2699,
      "2EA": 2700,
      "4A3": 2701,
      "var_360": 2702,
      "0FFFFFFFDh": 2703,
      "416B": 2704,
      "4BD": 2705,
      "0FFFFFFFBh": 2706,
      "76Ch": 2707,
      "5B0": 2708,
      "_5": 2709,
      "1CE": 2710,
      "616A": 2711,
      "_tran": 2712,
      "FE8": 2713,
      "rng_": 2714,
      "410C": 2715,
      "_gsl_complex": 2716,
      "1FF": 2717,
      "1E8": 2718,
      "41A8": 2719,
      "aFprintf": 2720,
      "ray": 2721,
      "aOper": 2722,
      "_xmalloc": 2723,
      "150": 2724,
      "453F": 2725,
      "ndre": 2726,
      "r8w": 2727,
      "41BD": 2728,
      "gendre": 2729,
      "6CAEB0": 2730,
      "gin": 2731,
      "var_2E0": 2732,
      "238": 2733,
      "locret_50": 2734,
      "40C9": 2735,
      "Po": 2736,
      "_z": 2737,
      "404": 2738,
      "401D": 2739,
      "setl": 2740,
      "49A": 2741,
      "137": 2742,
      "4F9": 2743,
      "var_348": 2744,
      "1BA": 2745,
      "6C63": 2746,
      "53h": 2747,
      "im": 2748,
      "8D": 2749,
      "406F": 2750,
      "20A": 2751,
      "4B9": 2752,
      "1CF": 2753,
      "_gsl_in": 2754,
      "rl_end": 2755,
      "9Fh": 2756,
      "off_60": 2757,
      "2A9": 2758,
      "nrm": 2759,
      "6D1F": 2760,
      "fdivp": 2761,
      "nrm2": 2762,
      "416E": 2763,
      "var_3C0": 2764,
      "6DF7": 2765,
      "40A7": 2766,
      "546": 2767,
      "8C": 2768,
      "fsubp": 2769,
      "415D": 2770,
      "6DD": 2771,
      "340": 2772,
      "SL": 2773,
      "anT": 2774,
      "C_0": 2775,
      "4159": 2776,
      "538": 2777,
      "117": 2778,
      "4AA": 2779,
      "1DA": 2780,
      "40AD": 2781,
      "198": 2782,
      "41E0": 2783,
      "2AF": 2784,
      "aBu": 2785,
      "ll": 2786,
      "CCCC": 2787,
      "Open": 2788,
      "368": 2789,
      "2DC": 2790,
      "47h": 2791,
      "4Fh": 2792,
      "33h": 2793,
      "5F8": 2794,
      "locret_1A": 2795,
      "16B": 2796,
      "1E9": 2797,
      "1DE": 2798,
      "416D": 2799,
      "3C0": 2800,
      "4CA": 2801,
      "2F7": 2802,
      "utation": 2803,
      "4BA": 2804,
      "_rpl_": 2805,
      "rl_end_ptr": 2806,
      "22B": 2807,
      "esk": 2808,
      "ped": 2809,
      "ari": 2810,
      "6C8B": 2811,
      "uple": 2812,
      "2FF": 2813,
      "var_368": 2814,
      "49E": 2815,
      "8B": 2816,
      "ed_ptr": 2817,
      "unt": 2818,
      "49C": 2819,
      "517": 2820,
      "Y_": 2821,
      "var_438": 2822,
      "aFwrite": 2823,
      "ect": 2824,
      "4238": 2825,
      "_max": 2826,
      "olesk": 2827,
      "_col_": 2828,
      "olesky": 2829,
      "11F": 2830,
      "check": 2831,
      "41F8": 2832,
      "6346": 2833,
      "6798": 2834,
      "aIs": 2835,
      "rchr": 2836,
      "569": 2837,
      "424B": 2838,
      "2EF": 2839,
      "sig": 2840,
      "29D": 2841,
      "2AD": 2842,
      "aFirst": 2843,
      "_fex": 2844,
      "prob": 2845,
      "29B": 2846,
      "ance": 2847,
      "_rec_fex": 2848,
      "aRowIndexIs": 2849,
      "aSubmatrix": 2850,
      "_func_ptr": 2851,
      "aRowIndexIsOutO": 2852,
      "aY": 2853,
      "401B": 2854,
      "4EB": 2855,
      "40D7": 2856,
      "418C": 2857,
      "mios": 2858,
      "aMa": 2859,
      "termios": 2860,
      "termios_p": 2861,
      "4018": 2862,
      "peci": 2863,
      "mpty": 2864,
      "var_1A4": 2865,
      "locret_45": 2866,
      "aThe": 2867,
      "62DA": 2868,
      "657": 2869,
      "107": 2870,
      "4208": 2871,
      "15A": 2872,
      "2AC": 2873,
      "_gsl_blas_dnrm2": 2874,
      "aMplMpl1C": 2875,
      "_rec_sex_a": 2876,
      "_array": 2877,
      "103": 2878,
      "670D": 2879,
      "40BA": 2880,
      "56B": 2881,
      "ding": 2882,
      "489": 2883,
      "_gsl_sort": 2884,
      "6290": 2885,
      "417E": 2886,
      "tifi": 2887,
      "5D0": 2888,
      "cmovs": 2889,
      "20746": 2890,
      "487": 2891,
      "40BD": 2892,
      "7Bh": 2893,
      "2F9": 2894,
      "setnle": 2895,
      "21E": 2896,
      "908": 2897,
      "26E": 2898,
      "Th": 2899,
      "41DC": 2900,
      "497": 2901,
      "4EA": 2902,
      "ork": 2903,
      "locret_410": 2904,
      "40D9": 2905,
      "_atoi": 2906,
      "locret_20": 2907,
      "2A7": 2908,
      "409B": 2909,
      "var_224": 2910,
      "40000000h": 2911,
      "133": 2912,
      "C88": 2913,
      "_gsl_stats_u": 2914,
      "11Eh": 2915,
      "aTo": 2916,
      "60C": 2917,
      "21200h": 2918,
      "IndexOut": 2919,
      "aWarn": 2920,
      "6C65": 2921,
      "The": 2922,
      "63AA": 2923,
      "223": 2924,
      "41C0": 2925,
      "var_560": 2926,
      "4FD": 2927,
      "22C": 2928,
      "22D": 2929,
      "locret_17": 2930,
      "do": 2931,
      "401F": 2932,
      "Type": 2933,
      "41DB": 2934,
      "139": 2935,
      "__glp_mpl_get": 2936,
      "An": 2937,
      "408F": 2938,
      "aInput": 2939,
      "var_21C": 2940,
      "15E": 2941,
      "41F0": 2942,
      "6799": 2943,
      "char_": 2944,
      "new_node": 2945,
      "__jit_new_node": 2946,
      "_xfree": 2947,
      "UC_": 2948,
      "4BB": 2949,
      "6Ah": 2950,
      "var_3D": 2951,
      "var_378": 2952,
      "29E": 2953,
      "arg_30": 2954,
      "278h": 2955,
      "56E": 2956,
      "4180": 2957,
      "578": 2958,
      "2AB": 2959,
      "_rl_vi": 2960,
      "41F9": 2961,
      "var_400": 2962,
      "callback": 2963,
      "4165": 2964,
      "1FC": 2965,
      "697": 2966,
      "48B": 2967,
      "var_1D4": 2968,
      "1EA": 2969,
      "map_ptr": 2970,
      "40E9": 2971,
      "conv": 2972,
      "422D": 2973,
      "227": 2974,
      "136": 2975,
      "ilt": 2976,
      "ient": 2977,
      "419D": 2978,
      "239": 2979,
      "40C7": 2980,
      "mage": 2981,
      "uble": 2982,
      "1AD": 2983,
      "14A": 2984,
      "code": 2985,
      "_strrchr": 2986,
      "var_408": 2987,
      "var_81": 2988,
      "4230": 2989,
      "aSOption": 2990,
      "__glp_mpq": 2991,
      "_rec_sex_ast_": 2992,
      "ome": 2993,
      "4197": 2994,
      "mory": 2995,
      "409F": 2996,
      "28D": 2997,
      "13D": 2998,
      "4FA": 2999,
      "1DB": 3000,
      "40A9": 3001,
      "40CF": 3002,
      "40E7": 3003,
      "41CB": 3004,
      "4248": 3005,
      "sC": 3006,
      "locret_18": 3007,
      "_rec_db": 3008,
      "62B7": 3009,
      "68A": 3010,
      "_gdbm_set_": 3011,
      "__glp_dmp": 3012,
      "_gdbm_set_errno": 3013,
      "52E": 3014,
      "41E8": 3015,
      "1BC": 3016,
      "1AE": 3017,
      "516": 3018,
      "var_42": 3019,
      "41BC": 3020,
      "173": 3021,
      "1F9": 3022,
      "_M": 3023,
      "4169": 3024,
      "420A": 3025,
      "1CD": 3026,
      "aBlasC": 3027,
      "240h": 3028,
      "ip": 3029,
      "41FB": 3030,
      "4210": 3031,
      "2CC": 3032,
      "99h": 3033,
      "ah": 3034,
      "5555": 3035,
      "4199": 3036,
      "63D": 3037,
      "var_440": 3038,
      "895A": 3039,
      "0ECh": 3040,
      "_token": 3041,
      "40D3": 3042,
      "aMulti": 3043,
      "1FFh": 3044,
      "yper": 3045,
      "mpletion": 3046,
      "6DF6": 3047,
      "_cur": 3048,
      "8E": 3049,
      "3AC": 3050,
      "ession": 3051,
      "407F": 3052,
      "75h": 3053,
      "41B0": 3054,
      "29A": 3055,
      "_rl_la": 3056,
      "41FC": 3057,
      "1FD": 3058,
      "1BD": 3059,
      "_type": 3060,
      "41DD": 3061,
      "aRk": 3062,
      "_gsl_multifi": 3063,
      "var_204": 3064,
      "419E": 3065,
      "380h": 3066,
      "ass": 3067,
      "17C": 3068,
      "158h": 3069,
      "40AF": 3070,
      "4CE": 3071,
      "49F": 3072,
      "4066": 3073,
      "var_570": 3074,
      "4C7": 3075,
      "216": 3076,
      "50B": 3077,
      "28E": 3078,
      "29F": 3079,
      "4122": 3080,
      "var_580": 3081,
      "_G": 3082,
      "28C": 3083,
      "13F": 3084,
      "exit": 3085,
      "13E": 3086,
      "0FFFFFFBFh": 3087,
      "_len": 3088,
      "ly": 3089,
      "4247": 3090,
      "4A9": 3091,
      "_pthread_mutex": 3092,
      "3F0": 3093,
      "oo": 3094,
      "567": 3095,
      "691": 3096,
      "_strs": 3097,
      "1B9": 3098,
      "4ED": 3099,
      "1D9": 3100,
      "41D8": 3101,
      "_memmove": 3102,
      "Str": 3103,
      "var_1AC": 3104,
      "2E9": 3105,
      "6ED": 3106,
      "422C": 3107,
      "ermi": 3108,
      "466": 3109,
      "4D3": 3110,
      "SL_M": 3111,
      "_GSL_M": 3112,
      "var_578": 3113,
      "299": 3114,
      "417D": 3115,
      "4D9": 3116,
      "At": 3117,
      "4F3": 3118,
      "6Dh": 3119,
      "owc": 3120,
      "temp": 3121,
      "sio": 3122,
      "40B9": 3123,
      "aEnd": 3124,
      "6D8": 3125,
      "7F0": 3126,
      "1FA": 3127,
      "660h": 3128,
      "iltinC": 3129,
      "1EB": 3130,
      "6A59": 3131,
      "3CB": 3132,
      "4228": 3133,
      "_rl_c": 3134,
      "aBessel": 3135,
      "41CC": 3136,
      "56h": 3137,
      "_rec_sex_ast_node": 3138,
      "play": 3139,
      "_history": 3140,
      "1B8h": 3141,
      "aSD": 3142,
      "52h": 3143,
      "638B": 3144,
      "718B": 3145,
      "__gdbm": 3146,
      "27C": 3147,
      "1BE": 3148,
      "373": 3149,
      "Fi": 3150,
      "4144": 3151,
      "1D3": 3152,
      "0C0": 3153,
      "472": 3154,
      "2FB": 3155,
      "25C": 3156,
      "off_62D": 3157,
      "7Dh": 3158,
      "__glp_mpl_get_token": 3159,
      "1C9": 3160,
      "25E": 3161,
      "1FB": 3162,
      "4019": 3163,
      "4079": 3164,
      "_subvector": 3165,
      "uid": 3166,
      "28B": 3167,
      "fy": 3168,
      "714B": 3169,
      "aCopy": 3170,
      "oup": 3171,
      "_raw": 3172,
      "83": 3173,
      "cvtsd2": 3174,
      "aBuiltinC": 3175,
      "cvtsd2ss": 3176,
      "ek": 3177,
      "Ad": 3178,
      "41AA": 3179,
      "258": 3180,
      "21A": 3181,
      "401C": 3182,
      "reen": 3183,
      "4CD": 3184,
      "720": 3185,
      "4033": 3186,
      "xmm11": 3187,
      "18E": 3188,
      "2CB": 3189,
      "ener": 3190,
      "arch": 3191,
      "4239": 3192,
      "2F6": 3193,
      "6D4": 3194,
      "var_71": 3195,
      "420B": 3196,
      "2FC": 3197,
      "4C9": 3198,
      "293": 3199,
      "var_20C": 3200,
      "493": 3201,
      "lor": 3202,
      "locret_41C": 3203,
      "41AE": 3204,
      "st_size": 3205,
      "4177": 3206,
      "aApiProb": 3207,
      "_float": 3208,
      "aWritten": 3209,
      "_gsl_interp": 3210,
      "248": 3211,
      "159": 3212,
      "Lu": 3213,
      "50E": 3214,
      "tm": 3215,
      "2BB": 3216,
      "6D1": 3217,
      "40EF": 3218,
      "618C": 3219,
      "4D7": 3220,
      "17D": 3221,
      "1BB": 3222,
      "418D": 3223,
      "_next": 3224,
      "ndo": 3225,
      "2D3": 3226,
      "4B3": 3227,
      "1CA": 3228,
      "7145C0": 3229,
      "219": 3230,
      "ty": 3231,
      "var_410": 3232,
      "4245": 3233,
      "andle": 3234,
      "2DE": 3235,
      "aRead": 3236,
      "var_390": 3237,
      "5E4": 3238,
      "aNum": 3239,
      "Argumen": 3240,
      "_strtok": 3241,
      "flag": 3242,
      "18D": 3243,
      "6A5C10": 3244,
      "27A": 3245,
      "quotearg_": 3246,
      "aWrittenBy": 3247,
      "41AD": 3248,
      "Does": 3249,
      "4243": 3250,
      "28A": 3251,
      "537": 3252,
      "23E": 3253,
      "_gsl_vector_subvector": 3254,
      "128h": 3255,
      "a_0": 3256,
      "ult": 3257,
      "inc": 3258,
      "419B": 3259,
      "2CD": 3260,
      "aNote": 3261,
      "6A5": 3262,
      "ary": 3263,
      "aMissing": 3264,
      "215": 3265,
      "37h": 3266,
      "aUnknown": 3267,
      "_short": 3268,
      "r12b": 3269,
      "F6E": 3270,
      "2BE": 3271,
      "_rl_last_": 3272,
      "2B0h": 3273,
      "417B": 3274,
      "1CB": 3275,
      "1A3": 3276,
      "2AA": 3277,
      "oflag": 3278,
      "_strstr": 3279,
      "var_5D": 3280,
      "0D0": 3281,
      "dC": 3282,
      "var_568": 3283,
      "4E9": 3284,
      "4097": 3285,
      "delete": 3286,
      "4E7": 3287,
      "6A81CC": 3288,
      "__jit_new_node_w": 3289,
      "18A": 3290,
      "4223": 3291,
      "1E7": 3292,
      "_rec_buf": 3293,
      "off_6C5E": 3294,
      "late": 3295,
      "16D": 3296,
      "40DF": 3297,
      "330": 3298,
      "2DB": 3299,
      "aLib": 3300,
      "41D0": 3301,
      "179": 3302,
      "77h": 3303,
      "_init": 3304,
      "696": 3305,
      "var_2E": 3306,
      "426C": 3307,
      "420C": 3308,
      "1EF": 3309,
      "423E": 3310,
      "4C3": 3311,
      "263": 3312,
      "4022": 3313,
      "255": 3314,
      "557": 3315,
      "_range": 3316,
      "Fol": 3317,
      "av": 3318,
      "k_ptr": 3319,
      "_get_mb": 3320,
      "4DB": 3321,
      "___ctype_get_mb": 3322,
      "_cur_max": 3323,
      "___ctype_get_mb_cur_max": 3324,
      "10000000h": 3325,
      "F90": 3326,
      "41FE": 3327,
      "422B": 3328,
      "2020": 3329,
      "3CC": 3330,
      "__glp_mpl_eval": 3331,
      "_from": 3332,
      "50C": 3333,
      "2C3": 3334,
      "1B7": 3335,
      "21D": 3336,
      "198h": 3337,
      "23C": 3338,
      "15F": 3339,
      "237": 3340,
      "101h": 3341,
      "off_253D": 3342,
      "0FFFh": 3343,
      "19D": 3344,
      "41EC": 3345,
      "1AA": 3346,
      "20000000h": 3347,
      "50A": 3348,
      "6C6D": 3349,
      "piped": 3350,
      "pipedes": 3351,
      "gsl_check": 3352,
      "Dimensio": 3353,
      "_column": 3354,
      "_range_ptr": 3355,
      "gsl_check_range_ptr": 3356,
      "locret_413": 3357,
      "6072": 3358,
      "4B7": 3359,
      "End": 3360,
      "15C": 3361,
      "mpC": 3362,
      "F9h": 3363,
      "0FFFFh": 3364,
      "424A": 3365,
      "F88": 3366,
      "0FFFFFFFFFFFFF894h": 3367,
      "For": 3368,
      "var_478": 3369,
      "locret_47": 3370,
      "414": 3371,
      "1F7": 3372,
      "_message": 3373,
      "6189": 3374,
      "fini": 3375,
      "mv": 3376,
      "ero": 3377,
      "var_2E8": 3378,
      "27B": 3379,
      "find": 3380,
      "2E7": 3381,
      "6E69": 3382,
      "360h": 3383,
      "54F": 3384,
      "423A": 3385,
      "var_1CC": 3386,
      "2C6": 3387,
      "screen": 3388,
      "3C8": 3389,
      "var_338": 3390,
      "28F": 3391,
      "350": 3392,
      "4126": 3393,
      "E83": 3394,
      "1AC": 3395,
      "olve": 3396,
      "Ap": 3397,
      "var_3F8": 3398,
      "4545": 3399,
      "2BD": 3400,
      "1DF": 3401,
      "254": 3402,
      "var_358": 3403,
      "idth": 3404,
      "0FFFFFFFFFFFFFFF0h": 3405,
      "4AF": 3406,
      "_q": 3407,
      "orted": 3408,
      "15B": 3409,
      "1FE": 3410,
      "509": 3411,
      "4179": 3412,
      "_rl_screen": 3413,
      "ER": 3414,
      "var_1058": 3415,
      "aGslGslMatrix": 3416,
      "aSubmatrixSourc": 3417,
      "om": 3418,
      "ith": 3419,
      "420D": 3420,
      "20C": 3421,
      "Le": 3422,
      "Sc": 3423,
      "41DE": 3424,
      "4220": 3425,
      "4B2": 3426,
      "aStr": 3427,
      "string": 3428,
      "0EFh": 3429,
      "41CA": 3430,
      "547": 3431,
      "var_420": 3432,
      "424": 3433,
      "384": 3434,
      "1C7": 3435,
      "rap": 3436,
      "6C4B": 3437,
      "0F4h": 3438,
      "310": 3439,
      "43A8": 3440,
      "var_858": 3441,
      "var_418": 3442,
      "41FD": 3443,
      "19C": 3444,
      "_char_": 3445,
      "2CA": 3446,
      "_rec_par": 3447,
      "_function": 3448,
      "83h": 3449,
      "143": 3450,
      "FF8": 3451,
      "tempt": 3452,
      "55C": 3453,
      "MustBeS": 3454,
      "2CF": 3455,
      "2B6": 3456,
      "rsion": 3457,
      "422F": 3458,
      "53A": 3459,
      "En": 3460,
      "2D1": 3461,
      "off_6C63": 3462,
      "50F": 3463,
      "2CE": 3464,
      "4290": 3465,
      "2FD": 3466,
      "289": 3467,
      "543": 3468,
      "linear_": 3469,
      "_symbol": 3470,
      "18B": 3471,
      "2BA": 3472,
      "var_1C4": 3473,
      "_se": 3474,
      "60A": 3475,
      "aDomain": 3476,
      "15D": 3477,
      "var_8A8": 3478,
      "_fd": 3479,
      "1EE": 3480,
      "4229": 3481,
      "423C": 3482,
      "148h": 3483,
      "5A0": 3484,
      "locret_407": 3485,
      "61F0": 3486,
      "213": 3487,
      "27D": 3488,
      "87": 3489,
      "ups": 3490,
      "27E": 3491,
      "225": 3492,
      "4A6": 3493,
      "64F7": 3494,
      "4156": 3495,
      "Image": 3496,
      "Speci": 3497,
      "var_590": 3498,
      "48F": 3499,
      "415F": 3500,
      "16A": 3501,
      "2C9": 3502,
      "55A": 3503,
      "147": 3504,
      "4237": 3505,
      "163": 3506,
      "0AAh": 3507,
      "55E": 3508,
      "_data": 3509,
      "B20": 3510,
      "419A": 3511,
      "40C3": 3512,
      "5F4": 3513,
      "40A3": 3514,
      "_gsl_sf_": 3515,
      "4227": 3516,
      "30C": 3517,
      "287": 3518,
      "locret_23": 3519,
      "70A": 3520,
      "370h": 3521,
      "Fil": 3522,
      "4056": 3523,
      "307": 3524,
      "2DD": 3525,
      "297": 3526,
      "78C": 3527,
      "3E0h": 3528,
      "setb": 3529,
      "895AB8": 3530,
      "ime": 3531,
      "423B": 3532,
      "aEn": 3533,
      "51D": 3534,
      "var_828": 3535,
      "aSet": 3536,
      "tdl": 3537,
      "6CB0": 3538,
      "18C": 3539,
      "1AB": 3540,
      "ngamma": 3541,
      "_gsl_sf_lngamma": 3542,
      "243": 3543,
      "movups": 3544,
      "aSize": 3545,
      "Get": 3546,
      "var_428": 3547,
      "24C": 3548,
      "6B8": 3549,
      "_atom": 3550,
      "9E0": 3551,
      "27F": 3552,
      "locret_40E": 3553,
      "Li": 3554,
      "fa": 3555,
      "22A": 3556,
      "5D8": 3557,
      "2D28": 3558,
      "4107": 3559,
      "_cblas": 3560,
      "154h": 3561,
      "6912": 3562,
      "22E": 3563,
      "F8B": 3564,
      "4225": 3565,
      "20E": 3566,
      "418E": 3567,
      "279": 3568,
      "_time": 3569,
      "24A": 3570,
      "1A7": 3571,
      "338": 3572,
      "44FE": 3573,
      "seek": 3574,
      "t__": 3575,
      "420E": 3576,
      "19B": 3577,
      "19F": 3578,
      "aOn": 3579,
      "21C": 3580,
      "6BC": 3581,
      "423D": 3582,
      "484": 3583,
      "21B": 3584,
      "19A": 3585,
      "6D13": 3586,
      "all": 3587,
      "189": 3588,
      "4DF": 3589,
      "57C": 3590,
      "41BB": 3591,
      "24F": 3592,
      "2dC": 3593,
      "var_234": 3594,
      "type": 3595,
      "orient": 3596,
      "var_848": 3597,
      "var_45": 3598,
      "var_804": 3599,
      "2BF": 3600,
      "rl_byte": 3601,
      "oriented_ptr": 3602,
      "4016": 3603,
      "21F": 3604,
      "aRc": 3605,
      "422A": 3606,
      "20B": 3607,
      "418B": 3608,
      "_ind": 3609,
      "aOutOf": 3610,
      "247": 3611,
      "700": 3612,
      "var_1BC": 3613,
      "var_99": 3614,
      "19E": 3615,
      "1A9": 3616,
      "25D": 3617,
      "aWrite": 3618,
      "aFprintfSourceC": 3619,
      "err_e": 3620,
      "_inv": 3621,
      "C0h": 3622,
      "sS": 3623,
      "4083": 3624,
      "l_0": 3625,
      "6E3": 3626,
      "tf": 3627,
      "41F7": 3628,
      "1BF": 3629,
      "6E00": 3630,
      "3CA": 3631,
      "41BE": 3632,
      "_pre": 3633,
      "0C8": 3634,
      "Has": 3635,
      "30D": 3636,
      "573": 3637,
      "421F": 3638,
      "locret_44": 3639,
      "40F3": 3640,
      "xmmword_2D25": 3641,
      "xmmword_2D1B": 3642,
      "xmmword_2C5E": 3643,
      "283": 3644,
      "291": 3645,
      "536": 3646,
      "522": 3647,
      "1C8h": 3648,
      "fx": 3649,
      "BCD": 3650,
      "var_8B0": 3651,
      "55D": 3652,
      "40B7": 3653,
      "Ptr": 3654,
      "var_470": 3655,
      "2B7": 3656,
      "aDomainError": 3657,
      "_cpy": 3658,
      "width": 3659,
      "rray": 3660,
      "var_860": 3661,
      "4135": 3662,
      "2C7": 3663,
      "56A": 3664,
      "4213": 3665,
      "6D22": 3666,
      "53D": 3667,
      "Cannot": 3668,
      "_DB": 3669,
      "3E8h": 3670,
      "setnb": 3671,
      "40B3": 3672,
      "aPar": 3673,
      "_osip_mutex": 3674,
      "_DBL": 3675,
      "var_1050": 3676,
      "off_62EB": 3677,
      "igen": 3678,
      "off_62EBF8": 3679,
      "17F": 3680,
      "__glp_mpl_c": 3681,
      "0FF00h": 3682,
      "53C": 3683,
      "245": 3684,
      "_6": 3685,
      "locret_1E": 3686,
      "486": 3687,
      "177": 3688,
      "4093": 3689,
      "507": 3690,
      "2B9": 3691,
      "1B3": 3692,
      "ition": 3693,
      "_elem": 3694,
      "_function_ptr": 3695,
      "cC": 3696,
      "var_1DC": 3697,
      "locret_40C": 3698,
      "7E4h": 3699,
      "51C": 3700,
      "ir": 3701,
      "var_4D0": 3702,
      "put_": 3703,
      "2A3": 3704,
      "146": 3705,
      "from": 3706,
      "ks": 3707,
      "ebp": 3708,
      "533": 3709,
      "_lt__": 3710,
      "iew_array": 3711,
      "3FF0000000000000h": 3712,
      "167": 3713,
      "1D7": 3714,
      "Col": 3715,
      "_en": 3716,
      "634": 3717,
      "aAwkH": 3718,
      "PR": 3719,
      "es_ptr": 3720,
      "var_7F0": 3721,
      "2F0h": 3722,
      "2F8B": 3723,
      "246": 3724,
      "var_47": 3725,
      "var_490": 3726,
      "4F5": 3727,
      "40E3": 3728,
      "4052": 3729,
      "63A": 3730,
      "17E": 3731,
      "67A7": 3732,
      "nan": 3733,
      "lease": 3734,
      "68A6": 3735,
      "ang": 3736,
      "6188": 3737,
      "41FA": 3738,
      "var_480": 3739,
      "aLu": 3740,
      "4246": 3741,
      "_view_array": 3742,
      "16F": 3743,
      "0BCh": 3744,
      "0FFFFFFFCh": 3745,
      "330h": 3746,
      "451": 3747,
      "A0C0": 3748,
      "ask": 3749,
      "rtowc": 3750,
      "53E": 3751,
      "424E": 3752,
      "3B9": 3753,
      "2D20": 3754,
      "omb": 3755,
      "var_1E4": 3756,
      "C8A": 3757,
      "40BF": 3758,
      "aJ": 3759,
      "2FE": 3760,
      "ntax": 3761,
      "io": 3762,
      "63C": 3763,
      "89h": 3764,
      "659": 3765,
      "193": 3766,
      "dec": 3767,
      "Line": 3768,
      "8Eh": 3769,
      "401A": 3770,
      "_mbrtowc": 3771,
      "__glp_dmx_error": 3772,
      "xmmword": 3773,
      "aBoot": 3774,
      "511": 3775,
      "vC": 3776,
      "400000h": 3777,
      "4109": 3778,
      "cmovnb": 3779,
      "ould": 3780,
      "104h": 3781,
      "long": 3782,
      "483": 3783,
      "ccess": 3784,
      "_long_do": 3785,
      "_long_double": 3786,
      "4249": 3787,
      "3DE": 3788,
      "41ED": 3789,
      "_tuple": 3790,
      "Over": 3791,
      "4015": 3792,
      "5113": 3793,
      "aNon": 3794,
      "_tow": 3795,
      "aLo": 3796,
      "4026": 3797,
      "var_488": 3798,
      "__exit": 3799,
      "1E3": 3800,
      "_gsl_vector_calloc": 3801,
      "pid": 3802,
      "sol": 3803,
      "var_510": 3804,
      "4218": 3805,
      "55B": 3806,
      "41BA": 3807,
      "4A5": 3808,
      "454": 3809,
      "234": 3810,
      "0FCh": 3811,
      "setbe": 3812,
      "c_po": 3813,
      "lowing": 3814,
      "_rl_last_c_po": 3815,
      "_rl_last_c_pos_ptr": 3816,
      "var_7F8": 3817,
      "locret_4F": 3818,
      "aInterp": 3819,
      "var_3F0": 3820,
      "var_91": 3821,
      "257": 3822,
      "23A": 3823,
      "59h": 3824,
      "ces": 3825,
      "arg_28": 3826,
      "6A9": 3827,
      "424C": 3828,
      "_free_func_ptr": 3829,
      "6A58": 3830,
      "671": 3831,
      "osip_free_func_ptr": 3832,
      "68000000h": 3833,
      "1F3": 3834,
      "proc": 3835,
      "462": 3836,
      "2F90": 3837,
      "BCC": 3838,
      "stream_ptr": 3839,
      "temptTo": 3840,
      "145": 3841,
      "_fscanf": 3842,
      "aStri": 3843,
      "1AF": 3844,
      "aAt": 3845,
      "61AA": 3846,
      "AX": 3847,
      "20D": 3848,
      "580h": 3849,
      "41CE": 3850,
      "4062": 3851,
      "var_430": 3852,
      "20000h": 3853,
      "545": 3854,
      "23B": 3855,
      "sert_": 3856,
      "_dup": 3857,
      "14C": 3858,
      "572": 3859,
      "62D9": 3860,
      "_start": 3861,
      "6177": 3862,
      "aDomainError_": 3863,
      "201": 3864,
      "6914": 3865,
      "Pr": 3866,
      "2D1A": 3867,
      "415E60": 3868,
      "229": 3869,
      "xmm12": 3870,
      "intC": 3871,
      "0FFFFFFFFFFFFFFF8h": 3872,
      "_gsl_permutation": 3873,
      "_GSL_MAX": 3874,
      "var_830": 3875,
      "20646": 3876,
      "197": 3877,
      "515": 3878,
      "6F8": 3879,
      "209": 3880,
      "421C": 3881,
      "513": 3882,
      "14D": 3883,
      "420h": 3884,
      "aOp": 3885,
      "_unlock": 3886,
      "br": 3887,
      "309": 3888,
      "253": 3889,
      "S_0": 3890,
      "2DF": 3891,
      "2F4": 3892,
      "418A": 3893,
      "ore": 3894,
      "0FFFFFFE": 3895,
      "_gsl_multifit_": 3896,
      "sort": 3897,
      "30B": 3898,
      "aDraftGlpapi0": 3899,
      "B82": 3900,
      "2DA": 3901,
      "Exce": 3902,
      "aWarning": 3903,
      "_num": 3904,
      "5DE": 3905,
      "andler": 3906,
      "_di": 3907,
      "var_3E": 3908,
      "4073": 3909,
      "4161B0": 3910,
      "t_ptr": 3911,
      "6C4": 3912,
      "3BD": 3913,
      "aLin": 3914,
      "416200": 3915,
      "var_10D8": 3916,
      "4166": 3917,
      "4244": 3918,
      "B84": 3919,
      "6E6F": 3920,
      "aCould": 3921,
      "locret_4B": 3922,
      "25F": 3923,
      "3BA0": 3924,
      "_putchar": 3925,
      "142": 3926,
      "NM": 3927,
      "465": 3928,
      "0A000h": 3929,
      "_gsl_linalg_h": 3930,
      "_scaled": 3931,
      "ha": 3932,
      "135": 3933,
      "58D": 3934,
      "2E3": 3935,
      "259": 3936,
      "69C": 3937,
      "Number": 3938,
      "try": 3939,
      "169": 3940,
      "4C4": 3941,
      "OP": 3942,
      "6DC": 3943,
      "aLe": 3944,
      "41B9": 3945,
      "var_89": 3946,
      "1C3": 3947,
      "53B": 3948,
      "older": 3949,
      "999999999999": 3950,
      "20F": 3951,
      "58F": 3952,
      "194": 3953,
      "23F": 3954,
      "aInternal": 3955,
      "aPerm": 3956,
      "4161F0": 3957,
      "68AA": 3958,
      "_mset": 3959,
      "7E0h": 3960,
      "0FFFFFFF7h": 3961,
      "0FEh": 3962,
      "cd": 3963,
      "2D9": 3964,
      "1B5": 3965,
      "6A7E": 3966,
      "_rl_term": 3967,
      "last": 3968,
      "aIoC": 3969,
      "aNumber": 3970,
      "4390": 3971,
      "656": 3972,
      "Min": 3973,
      "2F6A": 3974,
      "418F": 3975,
      "417A45": 3976,
      "Siz": 3977,
      "var_468": 3978,
      "187": 3979,
      "4B6": 3980,
      "199": 3981,
      "_syn": 3982,
      "918h": 3983,
      "178h": 3984,
      "plic": 3985,
      "3417": 3986,
      "70C": 3987,
      "23D": 3988,
      "41AB": 3989,
      "aDeb": 3990,
      "argc": 3991,
      "431": 3992,
      "var_1060": 3993,
      "30A": 3994,
      "389": 3995,
      "124": 3996,
      "4184A8": 3997,
      "418504": 3998,
      "aDraftGlpapi12C": 3999,
      "24E": 4000,
      "var_52": 4001,
      "var_558": 4002,
      "256": 4003,
      "4184CF": 4004,
      "418503": 4005,
      "ocation": 4006,
      "Lb": 4007,
      "var_498": 4008,
      "162": 4009,
      "10Ah": 4010,
      "39C": 4011,
      "Column": 4012,
      "11004h": 4013,
      "559": 4014,
      "41B7": 4015,
      "keymap_ptr": 4016,
      "4398": 4017,
      "2F3": 4018,
      "FFFFFFEh": 4019,
      "ity": 4020,
      "aSecondIndexOut": 4021,
      "Sy": 4022,
      "aTr": 4023,
      "698": 4024,
      "4013": 4025,
      "25B3": 4026,
      "294": 4027,
      "37C": 4028,
      "aAp": 4029,
      "aOver": 4030,
      "2F88": 4031,
      "aApiProb1C": 4032,
      "_GSL_MAX_DBL": 4033,
      "splay": 4034,
      "2A0h": 4035,
      "6928": 4036,
      "pect": 4037,
      "lineno": 4038,
      "5E8": 4039,
      "aVectorLength": 4040,
      "565": 4041,
      "var_5D0": 4042,
      "rea": 4043,
      "0E4h": 4044,
      "421D": 4045,
      "_po": 4046,
      "_rl_co": 4047,
      "sy": 4048,
      "38E": 4049,
      "674": 4050,
      "183": 4051,
      "cmova": 4052,
      "od": 4053,
      "var_978": 4054,
      "6DF9": 4055,
      "_gsl_matrix_complex": 4056,
      "_gsl_sf_h": 4057,
      "aInvalidLength": 4058,
      "MustBePo": 4059,
      "aOperSourceC": 4060,
      "OPER": 4061,
      "1A8h": 4062,
      "53F": 4063,
      "1158": 4064,
      "lean": 4065,
      "18F": 4066,
      "41DA": 4067,
      "6E8": 4068,
      "422E": 4069,
      "vers": 4070,
      "2D7": 4071,
      "0A1h": 4072,
      "149": 4073,
      "4051": 4074,
      "aUnd": 4075,
      "off_633BA0": 4076,
      "6FC": 4077,
      "locret_4E": 4078,
      "aSSS": 4079,
      "3AB": 4080,
      "71h": 4081,
      "aMatrixDimensio": 4082,
      "saction": 4083,
      "5F7": 4084,
      "aPr": 4085,
      "_libunistring_u": 4086,
      "aDev": 4087,
      "Or": 4088,
      "_text": 4089,
      "10Ch": 4090,
      "41EE": 4091,
      "Requ": 4092,
      "203A": 4093,
      "1F1": 4094,
      "4187": 4095,
      "aAl": 4096,
      "615": 4097,
      "413F": 4098,
      "4217": 4099,
      "4189": 4100,
      "417F": 4101,
      "asc_4BDB": 4102,
      "62FA": 4103,
      "orry": 4104,
      "2E9D": 4105,
      "6DE": 4106,
      "aSorry": 4107,
      "asc_4BFB": 4108,
      "asc_4BED": 4109,
      "22F": 4110,
      "a_1": 4111,
      "locret_409": 4112,
      "35h": 4113,
      "612": 4114,
      "_gsl_vector_complex": 4115,
      "Value": 4116,
      "24D": 4117,
      "60000000h": 4118,
      "TY_": 4119,
      "holder": 4120,
      "203": 4121,
      "692": 4122,
      "ouse": 4123,
      "9314h": 4124,
      "_osip_list": 4125,
      "UC_PR": 4126,
      "OPERTY_": 4127,
      "ouseholder": 4128,
      "UC_PROPERTY_": 4129,
      "tou": 4130,
      "426D": 4131,
      "locret_11": 4132,
      "program_inv": 4133,
      "program_invocation": 4134,
      "tem": 4135,
      "2A4": 4136,
      "0E830": 4137,
      "locret_1D": 4138,
      "locret_40A": 4139,
      "98F": 4140,
      "_rec_field_name": 4141,
      "Domain": 4142,
      "nbytes": 4143,
      "105": 4144,
      "6E1": 4145,
      "var_264": 4146,
      "63F": 4147,
      "times": 4148,
      "preg": 4149,
      "tol": 4150,
      "3DA": 4151,
      "2B3": 4152,
      "19999999999999": 4153,
      "isat": 4154,
      "1999999999999999h": 4155,
      "658": 4156,
      "var_1E": 4157,
      "4268": 4158,
      "4532": 4159,
      "ence": 4160,
      "dev": 4161,
      "aGnu": 4162,
      "14B": 4163,
      "4216": 4164,
      "606": 4165,
      "2C0h": 4166,
      "3CE": 4167,
      "_isw": 4168,
      "var_1048": 4169,
      "275": 4170,
      "6913": 4171,
      "Reg": 4172,
      "738": 4173,
      "485": 4174,
      "41EA": 4175,
      "41A9": 4176,
      "river": 4177,
      "6AC": 4178,
      "233": 4179,
      "41CD": 4180,
      "own": 4181,
      "24B": 4182,
      "match": 4183,
      "904": 4184,
      "asc_4BEE": 4185,
      "_decomp": 4186,
      "template": 4187,
      "Us": 4188,
      "2ED9": 4189,
      "639B": 4190,
      "t_0": 4191,
      "Are": 4192,
      "2D38": 4193,
      "4103": 4194,
      "_8": 4195,
      "42AA": 4196,
      "539": 4197,
      "50D2D5": 4198,
      "50CBE5": 4199,
      "244": 4200,
      "Would": 4201,
      "_mean": 4202,
      "_callback": 4203,
      "var_1EC": 4204,
      "2E5": 4205,
      "4F6": 4206,
      "126": 4207,
      "vectorSourc": 4208,
      "deMustBePo": 4209,
      "ply": 4210,
      "aSubvectorSourc": 4211,
      "__jit_syn": 4212,
      "aFwriteSourceC": 4213,
      "5113A5": 4214,
      "aStrideMustBePo": 4215,
      "_gsl_linalg_householder": 4216,
      "__jit_synth": 4217,
      "58A": 4218,
      "2E8h": 4219,
      "mension": 4220,
      "14E": 4221,
      "4D5": 4222,
      "2D29": 4223,
      "4A4": 4224,
      "seq": 4225,
      "768": 4226,
      "F8C": 4227,
      "38F": 4228,
      "pected": 4229,
      "ef": 4230,
      "Following": 4231,
      "2F72": 4232,
      "4C6": 4233,
      "57D": 4234,
      "57E": 4235,
      "Need": 4236,
      "aSizeOf": 4237,
      "948": 4238,
      "491": 4239,
      "E8C": 4240,
      "481": 4241,
      "598": 4242,
      "4061": 4243,
      "6Bh": 4244,
      "660230": 4245,
      "6643A0": 4246,
      "alize": 4247,
      "242": 4248,
      "lt": 4249,
      "locret_1B": 4250,
      "639D": 4251,
      "50CB65": 4252,
      "var_850": 4253,
      "aSp": 4254,
      "41EB": 4255,
      "var_1FC": 4256,
      "461": 4257,
      "496": 4258,
      "Too": 4259,
      "56F": 4260,
      "rC": 4261,
      "var_658": 4262,
      "_gener": 4263,
      "464": 4264,
      "78A": 4265,
      "114B": 4266,
      "blMax": 4267,
      "166": 4268,
      "aBflibS": 4269,
      "0C01h": 4270,
      "4133": 4271,
      "4253": 4272,
      "locret_1F": 4273,
      "4D6": 4274,
      "tat": 4275,
      "FFC": 4276,
      "638B80": 4277,
      "62F9": 4278,
      "67D": 4279,
      "11Ch": 4280,
      "aPlease": 4281,
      "2D0A70": 4282,
      "lect": 4283,
      "var_460": 4284,
      "var_7DC": 4285,
      "2D2": 4286,
      "2D4": 4287,
      "2F1": 4288,
      "273": 4289,
      "495": 4290,
      "aTheFollowing": 4291,
      "544": 4292,
      "_prob": 4293,
      "count": 4294,
      "492": 4295,
      "aInputDomain": 4296,
      "aInputDomainErr": 4297,
      "424F": 4298,
      "off_61": 4299,
      "2DDD": 4300,
      "134": 4301,
      "1D1": 4302,
      "aCs": 4303,
      "argp": 4304,
      "Memory": 4305,
      "var_A1": 4306,
      "4017": 4307,
      "687": 4308,
      "ill": 4309,
      "Ob": 4310,
      "4021": 4311,
      "A8C": 4312,
      "707": 4313,
      "2A6": 4314,
      "aCanT": 4315,
      "_uc_": 4316,
      "odeiv": 4317,
      "204": 4318,
      "506": 4319,
      "704": 4320,
      "B0C": 4321,
      "38C": 4322,
      "5EC": 4323,
      "var_B1": 4324,
      "var_1068": 4325,
      "1C1": 4326,
      "ere": 4327,
      "6A9D": 4328,
      "aTheFollowingAp": 4329,
      "var_5F0": 4330,
      "6C5": 4331,
      "4478": 4332,
      "pression": 4333,
      "locret_408": 4334,
      "osix": 4335,
      "4010": 4336,
      "416F": 4337,
      "122": 4338,
      "6C7": 4339,
      "_7": 4340,
      "ear": 4341,
      "4215": 4342,
      "605": 4343,
      "60CA": 4344,
      "6C5F": 4345,
      "157": 4346,
      "55F": 4347,
      "57A": 4348,
      "_rl_ding": 4349,
      "aWrittenBySS": 4350,
      "solver": 4351,
      "60D": 4352,
      "2E2": 4353,
      "3DC": 4354,
      "gth_ptr": 4355,
      "aOverflow": 4356,
      "var_4A": 4357,
      "4E6": 4358,
      "6DA": 4359,
      "Up": 4360,
      "637": 4361,
      "ment": 4362,
      "row": 4363,
      "6CD": 4364,
      "67A6": 4365,
      "prompt": 4366,
      "var_1040": 4367,
      "E07": 4368,
      "98E": 4369,
      "aMin": 4370,
      "var_23": 4371,
      "eric": 4372,
      "43D0": 4373,
      "3EC": 4374,
      "var_1170": 4375,
      "63AA10": 4376,
      "2D28F0": 4377,
      "4A2": 4378,
      "57B": 4379,
      "6BD": 4380,
      "81h": 4381,
      "As": 4382,
      "4219": 4383,
      "sform": 4384,
      "var_818": 4385,
      "689": 4386,
      "251": 4387,
      "_par": 4388,
      "ipe": 4389,
      "2E4": 4390,
      "Add": 4391,
      "212": 4392,
      "rng": 4393,
      "30E": 4394,
      "_stat": 4395,
      "3D8": 4396,
      "378": 4397,
      "542": 4398,
      "var_24C": 4399,
      "2F93": 4400,
      "6D7": 4401,
      "414A70": 4402,
      "421E": 4403,
      "3DD": 4404,
      "_rl_screenwidth": 4405,
      "_rl_screenwidth_ptr": 4406,
      "md": 4407,
      "132": 4408,
      "153": 4409,
      "67F": 4410,
      "112": 4411,
      "aDimension": 4412,
      "asprintf": 4413,
      "2544": 4414,
      "276": 4415,
      "1E6": 4416,
      "6C8C": 4417,
      "List": 4418,
      "303": 4419,
      "pdate": 4420,
      "41C9": 4421,
      "var_36": 4422,
      "2C8h": 4423,
      "587": 4424,
      "1C6": 4425,
      "_gsl_sf_bessel_J": 4426,
      "UseC": 4427,
      "2C62": 4428,
      "Help": 4429,
      "2C61F0": 4430,
      "1C4": 4431,
      "67B": 4432,
      "rive": 4433,
      "E04": 4434,
      "2D1FA0": 4435,
      "425C": 4436,
      "984": 4437,
      "4207": 4438,
      "419F": 4439,
      "rpl_fprintf": 4440,
      "jno": 4441,
      "206": 4442,
      "E87": 4443,
      "16Ch": 4444,
      "111": 4445,
      "37A": 4446,
      "AAD": 4447,
      "57F": 4448,
      "3EE": 4449,
      "6289": 4450,
      "E0E": 4451,
      "4F1": 4452,
      "6BB": 4453,
      "266": 4454,
      "A60": 4455,
      "424D": 4456,
      "784": 4457,
      "F74": 4458,
      "_field_name": 4459,
      "903": 4460,
      "1D4": 4461,
      "make": 4462,
      "_length_ptr": 4463,
      "434": 4464,
      "586": 4465,
      "6A7": 4466,
      "4032": 4467,
      "B0F": 4468,
      "2C2": 4469,
      "3ECh": 4470,
      "3BE": 4471,
      "210D": 4472,
      "ep": 4473,
      "4288": 4474,
      "6AE": 4475,
      "579": 4476,
      "aCSet": 4477,
      "extattr": 4478,
      "aCSetextattr": 4479,
      "6CA": 4480,
      "append": 4481,
      "_fdopen": 4482,
      "350h": 4483,
      "_j": 4484,
      "425D": 4485,
      "4378": 4486,
      "58B": 4487,
      "78E": 4488,
      "3DB": 4489,
      "artition": 4490,
      "function": 4491,
      "502": 4492,
      "131": 4493,
      "_index": 4494,
      "DblMax": 4495,
      "_k": 4496,
      "4257": 4497,
      "3BB": 4498,
      "6CCE00": 4499,
      "328": 4500,
      "_gsl_odeiv": 4501,
      "die": 4502,
      "_gsl_vector_view_array": 4503,
      "aLi": 4504,
      "aMplMpl4C": 4505,
      "80000": 4506,
      "__count": 4507,
      "6AA": 4508,
      "69E": 4509,
      "E0C": 4510,
      "2E1": 4511,
      "296": 4512,
      "aAb": 4513,
      "rng_uni": 4514,
      "Path": 4515,
      "_by": 4516,
      "43CC": 4517,
      "locret_C": 4518,
      "aPut": 4519,
      "_value": 4520,
      "locret_E": 4521,
      "E85": 4522,
      "98C": 4523,
      "235": 4524,
      "F9A": 4525,
      "629008": 4526,
      "609": 4527,
      "705": 4528,
      "98B": 4529,
      "aNumberOf": 4530,
      "mar": 4531,
      "302": 4532,
      "F84": 4533,
      "67C": 4534,
      "6C6BBC": 4535,
      "942": 4536,
      "41A7": 4537,
      "ZaZ": 4538,
      "2B4": 4539,
      "1C2": 4540,
      "1B6": 4541,
      "671868": 4542,
      "_strtol": 4543,
      "3D7": 4544,
      "_gsl_matrix_column": 4545,
      "Stat": 4546,
      "6250B8": 4547,
      "_strtoul": 4548,
      "4242": 4549,
      "67E": 4550,
      "off_62DD": 4551,
      "_qsort": 4552,
      "144": 4553,
      "l_ptr": 4554,
      "E0B": 4555,
      "4B5": 4556,
      "2C5": 4557,
      "1D6": 4558,
      "Tr": 4559,
      "var_1F4": 4560,
      "6396": 4561,
      "AAE": 4562,
      "aExp": 4563,
      "434C": 4564,
      "6E4": 4565,
      "3ED": 4566,
      "_long": 4567,
      "aBootImage": 4568,
      "lan": 4569,
      "474": 4570,
      "6D23": 4571,
      "41C7": 4572,
      "aArg": 4573,
      "off_4B4E": 4574,
      "2C0B0": 4575,
      "fxch": 4576,
      "3FFFFFFFh": 4577,
      "Clo": 4578,
      "0AF0h": 4579,
      "196": 4580,
      "4E2": 4581,
      "B0B": 4582,
      "38D": 4583,
      "2F6D": 4584,
      "677": 4585,
      "xmmword_11": 4586,
      "nds": 4587,
      "421A": 4588,
      "426B": 4589,
      "41E9": 4590,
      "41DF": 4591,
      "8888": 4592,
      "174": 4593,
      "535": 4594,
      "_iconv": 4595,
      "ypot": 4596,
      "ermite": 4597,
      "off_6C6370": 4598,
      "_scaled_e": 4599,
      "0ACh": 4600,
      "272": 4601,
      "qual": 4602,
      "rgenC": 4603,
      "MirgenC": 4604,
      "aIntoptMirgenC": 4605,
      "3E7": 4606,
      "501": 4607,
      "dio": 4608,
      "6315": 4609,
      "space": 4610,
      "0E830FE8": 4611,
      "roup": 4612,
      "var_760": 4613,
      "F8D": 4614,
      "274": 4615,
      "494": 4616,
      "39A": 4617,
      "asc_4BD": 4618,
      "_fputs_unlocked": 4619,
      "3E8": 4620,
      "Create": 4621,
      "4250": 4622,
      "551": 4623,
      "324": 4624,
      "90D": 4625,
      "6A1": 4626,
      "BCE": 4627,
      "var_3B": 4628,
      "4258": 4629,
      "B8C": 4630,
      "286": 4631,
      "D8C": 4632,
      "FCF": 4633,
      "F9D": 4634,
      "Gnu": 4635,
      "var_838": 4636,
      "285": 4637,
      "38B": 4638,
      "78B": 4639,
      "1F6": 4640,
      "65A": 4641,
      "6EC": 4642,
      "39D": 4643,
      "37E": 4644,
      "41AF": 4645,
      "fC": 4646,
      "var_63": 4647,
      "_sorted": 4648,
      "_gettime": 4649,
      "trices": 4650,
      "_gsl_sf_g": 4651,
      "aMatrices": 4652,
      "_link": 4653,
      "var_CD": 4654,
      "471": 4655,
      "3EA": 4656,
      "Ma": 4657,
      "Wh": 4658,
      "var_5F8": 4659,
      "4468": 4660,
      "985": 4661,
      "65C": 4662,
      "_ds": 4663,
      "tC": 4664,
      "4C2": 4665,
      "172": 4666,
      "aNot": 4667,
      "aCode": 4668,
      "640h": 4669,
      "_si": 4670,
      "6018h": 4671,
      "res": 4672,
      "var_23C": 4673,
      "4C5": 4674,
      "6572": 4675,
      "3E38": 4676,
      "379": 4677,
      "51h": 4678,
      "C0F": 4679,
      "0FE": 4680,
      "325": 4681,
      "xstat": 4682,
      "2C1": 4683,
      "_getc": 4684,
      "4A1": 4685,
      "675": 4686,
      "3A7": 4687,
      "AA9": 4688,
      "asc_4BE": 4689,
      "asc_4BF9": 4690,
      "306": 4691,
      "2S": 4692,
      "aug": 4693,
      "xmm13": 4694,
      "movstat": 4695,
      "F83": 4696,
      "252": 4697,
      "695": 4698,
      "3CD": 4699,
      "4209": 4700,
      "argz": 4701,
      "aTh": 4702,
      "_glp_get_col_": 4703,
      "_from_sorted": 4704,
      "64F744": 4705,
      "_from_sorted_data": 4706,
      "444": 4707,
      "4C1": 4708,
      "2A2": 4709,
      "BCB": 4710,
      "__glp_mpl_make": 4711,
      "aMatricesMustHa": 4712,
      "Mu": 4713,
      "7ED": 4714,
      "_get_atom": 4715,
      "648": 4716,
      "FC8": 4717,
      "ward": 4718,
      "A8B": 4719,
      "58C": 4720,
      "2E6": 4721,
      "789": 4722,
      "BC4": 4723,
      "86ADE8": 4724,
      "aUnder": 4725,
      "rng_uniform": 4726,
      "426A": 4727,
      "6071": 4728,
      "636": 4729,
      "6AB": 4730,
      "6D3": 4731,
      "577": 4732,
      "6B7": 4733,
      "Exten": 4734,
      "var_5D8": 4735,
      "2073": 4736,
      "A0C": 4737,
      "B8E": 4738,
      "A84": 4739,
      "292": 4740,
      "4E5": 4741,
      "stat_loc": 4742,
      "Specify": 4743,
      "bss": 4744,
      "des": 4745,
      "45EE": 4746,
      "__bss": 4747,
      "4E1": 4748,
      "114": 4749,
      "__bss_start": 4750,
      "7A0": 4751,
      "var_434": 4752,
      "var_244": 4753,
      "var_5B0": 4754,
      "_gsl_rng_uniform": 4755,
      "70B": 4756,
      "BC3": 4757,
      "37B": 4758,
      "ht_signal": 4759,
      "aDraftGlpios03C": 4760,
      "_rl_caug": 4761,
      "ht_signal_ptr": 4762,
      "_rl_caught_signal_ptr": 4763,
      "653": 4764,
      "A0A": 4765,
      "70E": 4766,
      "387": 4767,
      "68F": 4768,
      "787": 4769,
      "633": 4770,
      "_min": 4771,
      "F7C": 4772,
      "614": 4773,
      "asc_4BFC": 4774,
      "asc_4BF3": 4775,
      "64B5E4": 4776,
      "4152": 4777,
      "_fget": 4778,
      "6CE": 4779,
      "17B8": 4780,
      "41E7": 4781,
      "Iso": 4782,
      "aNode": 4783,
      "0E0": 4784,
      "5DC": 4785,
      "62C0B0": 4786,
      "282": 4787,
      "arg_ptr": 4788,
      "90C": 4789,
      "62A0C0": 4790,
      "expected": 4791,
      "51F": 4792,
      "4278": 4793,
      "421B": 4794,
      "eri": 4795,
      "43A9": 4796,
      "D04": 4797,
      "locret_29": 4798,
      "1B1": 4799,
      "334": 4800,
      "asc_4BD9": 4801,
      "aNe": 4802,
      "619A": 4803,
      "aStat": 4804,
      "369": 4805,
      "3FE": 4806,
      "60000h": 4807,
      "102h": 4808,
      "2DC8": 4809,
      "38A": 4810,
      "666": 4811,
      "aLen": 4812,
      "dot": 4813,
      "mon": 4814,
      "58E": 4815,
      "6C9": 4816,
      "1A6": 4817,
      "6DB": 4818,
      "F8A": 4819,
      "6AD": 4820,
      "aLegendre": 4821,
      "FFD": 4822,
      "var_26": 4823,
      "1C5": 4824,
      "column": 4825,
      "aInitSourceC_1": 4826,
      "aDraftGlpios01C": 4827,
      "aMatrixSizeExce": 4828,
      "_mult_": 4829,
      "_gsl_sf_exp_mult_": 4830,
      "_transaction": 4831,
      "aCopySourceC": 4832,
      "quotearg_n": 4833,
      "__jit_new_node_ww": 4834,
      "ical": 4835,
      "4535": 4836,
      "A0B": 4837,
      "786": 4838,
      "4F2": 4839,
      "1D5": 4840,
      "236": 4841,
      "Text": 4842,
      "E8E": 4843,
      "4B4": 4844,
      "139A": 4845,
      "6A2": 4846,
      "679D": 4847,
      "5D9": 4848,
      "Inte": 4849,
      "0D030FE": 4850,
      "zlib": 4851,
      "E0D": 4852,
      "176": 4853,
      "FA3": 4854,
      "__glp_zlib": 4855,
      "_ac": 4856,
      "70000000h": 4857,
      "_12": 4858,
      "var_5C0": 4859,
      "101": 4860,
      "2C4": 4861,
      "2F9D": 4862,
      "6EB": 4863,
      "BCF": 4864,
      "search": 4865,
      "var_7D4": 4866,
      "B8D": 4867,
      "locret_2A": 4868,
      "1E2": 4869,
      "65F": 4870,
      "6BA": 4871,
      "__glp_dmx_read": 4872,
      "fg": 4873,
      "FFFFh": 4874,
      "425E": 4875,
      "44F1": 4876,
      "rl_mar": 4877,
      "tern": 4878,
      "IsNot": 4879,
      "rl_mark_ptr": 4880,
      "41F3": 4881,
      "589": 4882,
      "59D": 4883,
      "F30": 4884,
      "A07": 4885,
      "B8B": 4886,
      "783": 4887,
      "1A2": 4888,
      "4D1": 4889,
      "aField": 4890,
      "Dim": 4891,
      "ariance": 4892,
      "__IO_getc": 4893,
      "urn": 4894,
      "E8F": 4895,
      "78F": 4896,
      "258h": 4897,
      "off_C": 4898,
      "654": 4899,
      "_eval": 4900,
      "var_550": 4901,
      "edian": 4902,
      "30F": 4903,
      "ated": 4904,
      "394": 4905,
      "_get_num": 4906,
      "526": 4907,
      "Sh": 4908,
      "mic": 4909,
      "63B8": 4910,
      "5DD": 4911,
      "xmmword_115": 4912,
      "__glp_mpl_is": 4913,
      "execC": 4914,
      "Si": 4915,
      "004": 4916,
      "6CF": 4917,
      "68A7": 4918,
      "gsl_rng": 4919,
      "aCheck": 4920,
      "FF4": 4921,
      "42D8": 4922,
      "6CD0": 4923,
      "44F8": 4924,
      "2F5": 4925,
      "98A": 4926,
      "66F": 4927,
      "647": 4928,
      "Man": 4929,
      "A0E": 4930,
      "locret_4D": 4931,
      "6D1C": 4932,
      "FAB": 4933,
      "Dir": 4934,
      "aChar": 4935,
      "4111": 4936,
      "693": 4937,
      "ized": 4938,
      "FE0": 4939,
      "E8A": 4940,
      "164": 4941,
      "78D": 4942,
      "699": 4943,
      "My": 4944,
      "QR": 4945,
      "ey": 4946,
      "var_A9": 4947,
      "A01": 4948,
      "D81": 4949,
      "4Ah": 4950,
      "195": 4951,
      "6AF": 4952,
      "2A5": 4953,
      "393": 4954,
      "aFdf": 4955,
      "_xrealloc": 4956,
      "_gsl_block_u": 4957,
      "MustHave": 4958,
      "aUnderflow": 4959,
      "34C": 4960,
      "4112": 4961,
      "4538": 4962,
      "A8F": 4963,
      "69D": 4964,
      "6E7": 4965,
      "FDB": 4966,
      "raph": 4967,
      "AC0": 4968,
      "482": 4969,
      "683": 4970,
      "295": 4971,
      "4F4": 4972,
      "F7A": 4973,
      "var_2B": 4974,
      "_sec": 4975,
      "60B": 4976,
      "A89": 4977,
      "D87": 4978,
      "907": 4979,
      "68D": 4980,
      "4E4": 4981,
      "3EF": 4982,
      "FFFFFh": 4983,
      "4260": 4984,
      "425B": 4985,
      "104": 4986,
      "383": 4987,
      "156": 4988,
      "41A3": 4989,
      "_setlocale": 4990,
      "618708": 4991,
      "off_253D28": 4992,
      "Write": 4993,
      "4500": 4994,
      "B0E": 4995,
      "186": 4996,
      "F0D": 4997,
      "192": 4998,
      "6EF": 4999,
      "uz": 5000,
      "2D6": 5001,
      "584": 5002,
      "1B2": 5003,
      "1B4": 5004,
      "4D2": 5005,
      "_lock": 5006,
      "6C64": 5007,
      "E89": 5008,
      "90A": 5009,
      "Field": 5010,
      "A8D": 5011,
      "184": 5012,
      "unction": 5013,
      "cholesky": 5014,
      "Opt": 5015,
      "629010": 5016,
      "sD": 5017,
      "6C3": 5018,
      "F8E": 5019,
      "382": 5020,
      "2EA5": 5021,
      "4D4": 5022,
      "5CB": 5023,
      "0F030FFFCh": 5024,
      "_gsl_linalg_QR": 5025,
      "_zero": 5026,
      "JJ": 5027,
      "mt": 5028,
      "trs": 5029,
      "var_5A": 5030,
      "A06": 5031,
      "A0D": 5032,
      "583": 5033,
      "232": 5034,
      "_rec_mset_iterator_next": 5035,
      "locret_F": 5036,
      "6D9": 5037,
      "3D9": 5038,
      "6F6": 5039,
      "001h": 5040,
      "102": 5041,
      "307C": 5042,
      "off_633": 5043,
      "rect": 5044,
      "D02": 5045,
      "1A5": 5046,
      "41BF": 5047,
      "41D9": 5048,
      "7265": 5049,
      "ight": 5050,
      "conds": 5051,
      "6250A8": 5052,
      "420F": 5053,
      "var_788": 5054,
      "4B1": 5055,
      "582": 5056,
      "635": 5057,
      "2799": 5058,
      "6D5": 5059,
      "69B": 5060,
      "231": 5061,
      "FEC": 5062,
      "6E9": 5063,
      "fs": 5064,
      "40000h": 5065,
      "var_5A8": 5066,
      "2019": 5067,
      "B03": 5068,
      "6C69": 5069,
      "D8B": 5070,
      "63BA": 5071,
      "opts": 5072,
      "aHome": 5073,
      "Ub": 5074,
      "A0F": 5075,
      "locret_8": 5076,
      "E8B": 5077,
      "D8A": 5078,
      "F94": 5079,
      "__glp_dmp_get_atom": 5080,
      "678": 5081,
      "_qu": 5082,
      "202": 5083,
      "2F2": 5084,
      "1A4": 5085,
      "aMatrixMustBeS": 5086,
      "aSubset": 5087,
      "aMatrixMustBeSq": 5088,
      "left": 5089,
      "00C": 5090,
      "_file": 5091,
      "A05": 5092,
      "60F": 5093,
      "6C2": 5094,
      "69F": 5095,
      "532": 5096,
      "BCA": 5097,
      "_rec_mset_iterator_free": 5098,
      "bytesleft": 5099,
      "ain": 5100,
      "var_4C8": 5101,
      "4370": 5102,
      "909": 5103,
      "90E": 5104,
      "1A1": 5105,
      "8Dh": 5106,
      "bind": 5107,
      "43B8": 5108,
      "A8E": 5109,
      "6C67": 5110,
      "905": 5111,
      "684": 5112,
      "1E4": 5113,
      "556": 5114,
      "FD4": 5115,
      "5F3": 5116,
      "0FFFFFFEFh": 5117,
      "200000h": 5118,
      "563": 5119,
      "ai": 5120,
      "43CD": 5121,
      "6C1": 5122,
      "69A": 5123,
      "39B": 5124,
      "226": 5125,
      "268h": 5126,
      "ofd": 5127,
      "284": 5128,
      "F8F": 5129,
      "175": 5130,
      "F7D": 5131,
      "FDD": 5132,
      "fix": 5133,
      "ource": 5134,
      "_rl_keymap_ptr": 5135,
      "2D06C0": 5136,
      "E92": 5137,
      "670B": 5138,
      "_gettimeofd": 5139,
      "_gettimeofday": 5140,
      "B09": 5141,
      "F01": 5142,
      "E82": 5143,
      "3BA": 5144,
      "aFailedToAlloca_1": 5145,
      "aRegexecC": 5146,
      "702": 5147,
      "70F": 5148,
      "68E": 5149,
      "var_A08": 5150,
      "asc_4BEB": 5151,
      "D0B": 5152,
      "BC2": 5153,
      "aHyper": 5154,
      "aUnexpected": 5155,
      "OR": 5156,
      "art_": 5157,
      "legendre": 5158,
      "locret_25": 5159,
      "F00h": 5160,
      "171": 5161,
      "672": 5162,
      "BC5": 5163,
      "F97": 5164,
      "rig": 5165,
      "_undo": 5166,
      "aCholesky": 5167,
      "_glp_set_row": 5168,
      "_gsl_sf_legendre": 5169,
      "34B": 5170,
      "2F7F": 5171,
      "3E9": 5172,
      "0CAh": 5173,
      "7EA": 5174,
      "62DF60": 5175,
      "Valid": 5176,
      "EA0": 5177,
      "43AD": 5178,
      "A87": 5179,
      "182": 5180,
      "188h": 5181,
      "90B": 5182,
      "FCC": 5183,
      "7E4": 5184,
      "FF6": 5185,
      "FFE": 5186,
      "FFF": 5187,
      "4132": 5188,
      "opt_": 5189,
      "locret_2B": 5190,
      "44A8": 5191,
      "987": 5192,
      "37D": 5193,
      "athie": 5194,
      "_gsl_blas_ds": 5195,
      "iry": 5196,
      "982": 5197,
      "3C4": 5198,
      "41CF": 5199,
      "_towlower": 5200,
      "cat": 5201,
      "_gl_": 5202,
      "locret_3": 5203,
      "E8D": 5204,
      "2FA0": 5205,
      "989": 5206,
      "152": 5207,
      "3D0h": 5208,
      "F9C": 5209,
      "26F7": 5210,
      "aSimplexSpy": 5211,
      "cxt_ptr": 5212,
      "rector": 5213,
      "A8A": 5214,
      "F02": 5215,
      "16Dh": 5216,
      "6BE": 5217,
      "FF5": 5218,
      "var_42C": 5219,
      "4233": 5220,
      "706": 5221,
      "C04": 5222,
      "531": 5223,
      "555": 5224,
      "FDF": 5225,
      "D650": 5226,
      "0FDh": 5227,
      "730": 5228,
      "IN": 5229,
      "4520": 5230,
      "F09": 5231,
      "F0B": 5232,
      "191": 5233,
      "1F4": 5234,
      "694": 5235,
      "114h": 5236,
      "6B4": 5237,
      "37F": 5238,
      "62D8": 5239,
      "wan": 5240,
      "var_4B8": 5241,
      "locret_417": 5242,
      "581": 5243,
      "3DF": 5244,
      "39E": 5245,
      "9EBA": 5246,
      "gsl_rng_": 5247,
      "_gsl_sf_exp_mult_err_e": 5248,
      "_wc": 5249,
      "na": 5250,
      "are": 5251,
      "E05": 5252,
      "D86": 5253,
      "6A4": 5254,
      "one": 5255,
      "aSh": 5256,
      "5EE": 5257,
      "224": 5258,
      "62D980": 5259,
      "asc_4BF1ED": 5260,
      "asc_4BF04D": 5261,
      "asc_4BDB1D": 5262,
      "asc_4BFB6D": 5263,
      "asc_4BED6D": 5264,
      "8Fh": 5265,
      "Ar": 5266,
      "au": 5267,
      "var_690": 5268,
      "insert_": 5269,
      "60E": 5270,
      "B0D": 5271,
      "var_4C0": 5272,
      "4267": 5273,
      "B8F": 5274,
      "attern": 5275,
      "686": 5276,
      "FEF": 5277,
      "7D0h": 5278,
      "asc_4B6": 5279,
      "__glp_mpl_ex": 5280,
      "20746F6E": 5281,
      "cFailed": 5282,
      "til": 5283,
      "00E": 5284,
      "var_7D8": 5285,
      "D01": 5286,
      "161": 5287,
      "mit": 5288,
      "68B": 5289,
      "FED": 5290,
      "ACC": 5291,
      "377": 5292,
      "FA7": 5293,
      "aErr": 5294,
      "_typ": 5295,
      "_clo": 5296,
      "ator_typ": 5297,
      "_generator_typ": 5298,
      "aPutcFailed": 5299,
      "gsl_rng_generator_typ": 5300,
      "gsl_rng_generator_types_ptr": 5301,
      "var_5A0": 5302,
      "var_5DC": 5303,
      "Char": 5304,
      "698h": 5305,
      "6B3": 5306,
      "7EB": 5307,
      "Init": 5308,
      "Invalid": 5309,
      "4259": 5310,
      "505": 5311,
      "locret_2C": 5312,
      "781": 5313,
      "6B9": 5314,
      "asc_4253": 5315,
      "2D2D2D2D": 5316,
      "00F": 5317,
      "E09": 5318,
      "F04": 5319,
      "C0C": 5320,
      "ont": 5321,
      "1F5": 5322,
      "3CF": 5323,
      "3AD": 5324,
      "F9B": 5325,
      "121": 5326,
      "41EF": 5327,
      "2D2540": 5328,
      "verse": 5329,
      "FFB": 5330,
      "vec": 5331,
      "65B": 5332,
      "62DAD0": 5333,
      "eigen": 5334,
      "xalloc": 5335,
      "_gsl_eigen": 5336,
      "E0A": 5337,
      "185": 5338,
      "679C": 5339,
      "BC7": 5340,
      "3BF": 5341,
      "aArray": 5342,
      "_glp_set_col_": 5343,
      "A04": 5344,
      "A81": 5345,
      "A82": 5346,
      "181": 5347,
      "F89": 5348,
      "FD7": 5349,
      "FB7": 5350,
      "EC7": 5351,
      "SSS": 5352,
      "9A0": 5353,
      "var_D1": 5354,
      "F05": 5355,
      "552": 5356,
      "DCA": 5357,
      "374": 5358,
      "__glp_mpl_delete": 5359,
      "_solve": 5360,
      "D8E": 5361,
      "2A1": 5362,
      "5358": 5363,
      "aSUn": 5364,
      "Code": 5365,
      "Tran": 5366,
      "B87": 5367,
      "rl_out": 5368,
      "375": 5369,
      "ower": 5370,
      "_lseek": 5371,
      "_mode": 5372,
      "FF7": 5373,
      "var_2F": 5374,
      "var_718": 5375,
      "3AF": 5376,
      "0FFFFFFF9h": 5377,
      "_std": 5378,
      "nT": 5379,
      "FF3": 5380,
      "304": 5381,
      "652": 5382,
      "3E3": 5383,
      "deli": 5384,
      "6F4": 5385,
      "off_25AC": 5386,
      "F0A": 5387,
      "2B2": 5388,
      "FE1": 5389,
      "FB9": 5390,
      "___isnan": 5391,
      "aInitSourceC_0": 5392,
      "off_6C5ED0": 5393,
      "784h": 5394,
      "FEB": 5395,
      "774": 5396,
      "rl_outstream_ptr": 5397,
      "Off": 5398,
      "Ran": 5399,
      "_getc_unlocked": 5400,
      "983": 5401,
      "1D8h": 5402,
      "3C3": 5403,
      "F9E": 5404,
      "_gsl_permute": 5405,
      "_gsl_odeiv2": 5406,
      "E84": 5407,
      "D8D": 5408,
      "int_": 5409,
      "271": 5410,
      "BC9": 5411,
      "4173": 5412,
      "59B": 5413,
      "arge": 5414,
      "4508": 5415,
      "off_6C5F": 5416,
      "02d": 5417,
      "750": 5418,
      "928": 5419,
      "4269": 5420,
      "B01": 5421,
      "prim": 5422,
      "1FCh": 5423,
      "39F": 5424,
      "624": 5425,
      "59F": 5426,
      "97h": 5427,
      "734": 5428,
      "691498": 5429,
      "61D": 5430,
      "fe": 5431,
      "var_5B8": 5432,
      "4235": 5433,
      "E01": 5434,
      "F06": 5435,
      "1D2": 5436,
      "3C7": 5437,
      "5CD": 5438,
      "13Ch": 5439,
      "68C": 5440,
      "cho": 5441,
      "seconds": 5442,
      "aPosix": 5443,
      "__glp_mpz": 5444,
      "74697": 5445,
      "2C5E40": 5446,
      "2D1BF0": 5447,
      "aMissingArgumen": 5448,
      "xx": 5449,
      "locret_419": 5450,
      "_strmb": 5451,
      "FEE": 5452,
      "3C9": 5453,
      "cmovle": 5454,
      "6165C0": 5455,
      "62B898": 5456,
      "631780": 5457,
      "stos": 5458,
      "0BFh": 5459,
      "aWriteError": 5460,
      "stosq": 5461,
      "FF9": 5462,
      "B05": 5463,
      "709": 5464,
      "4F55": 5465,
      "6A6": 5466,
      "673": 5467,
      "3AA": 5468,
      "0DFh": 5469,
      "ACE": 5470,
      "6165D0": 5471,
      "7FD": 5472,
      "E86": 5473,
      "lpC": 5474,
      "AA4": 5475,
      "DDD": 5476,
      "_case": 5477,
      "bltdl": 5478,
      "_putc_unlocked": 5479,
      "0FFFFF00h": 5480,
      "aLibltdl": 5481,
      "682": 5482,
      "254F": 5483,
      "FEA": 5484,
      "3EB": 5485,
      "0FFFFFF9Ch": 5486,
      "off_633D88": 5487,
      "lex": 5488,
      "001": 5489,
      "B89": 5490,
      "_rec_buf_puts": 5491,
      "301": 5492,
      "281": 5493,
      "_getopt_": 5494,
      "685": 5495,
      "574": 5496,
      "aOutput": 5497,
      "athieu": 5498,
      "10Dh": 5499,
      "D0C": 5500,
      "F0C": 5501,
      "F86": 5502,
      "676": 5503,
      "6EE": 5504,
      "6B6": 5505,
      "333": 5506,
      "4428": 5507,
      "585": 5508,
      "C8B": 5509,
      "5C4": 5510,
      "6C8788": 5511,
      "616718": 5512,
      "7195C0": 5513,
      "7155C0": 5514,
      "6C6668": 5515,
      "98D": 5516,
      "4FC8": 5517,
      "376": 5518,
      "FD9": 5519,
      "3F3": 5520,
      "692878": 5521,
      "41F5": 5522,
      "43AE": 5523,
      "205": 5524,
      "B851": 5525,
      "D0E": 5526,
      "385": 5527,
      "680h": 5528,
      "FC6": 5529,
      "F93": 5530,
      "aMe": 5531,
      "IsA": 5532,
      "off_4FFC": 5533,
      "mask": 5534,
      "var_73": 5535,
      "42AB": 5536,
      "43B0": 5537,
      "6B2": 5538,
      "ript": 5539,
      "Node": 5540,
      "616768": 5541,
      "6D1388": 5542,
      "S2S": 5543,
      "var_540": 5544,
      "423F": 5545,
      "439A": 5546,
      "D0F": 5547,
      "_gsl_fini": 5548,
      "981": 5549,
      "FE6": 5550,
      "FCE": 5551,
      "3A0h": 5552,
      "214": 5553,
      "5DF": 5554,
      "aMatrixSiz": 5555,
      "_gsl_matrix_subcolumn": 5556,
      "5A82799": 5557,
      "___osip_message": 5558,
      "_scale": 5559,
      "6ED9EBA": 5560,
      "_gsl_finite": 5561,
      "aMatrixSizes": 5562,
      "5A827999h": 5563,
      "___osip_message_callback": 5564,
      "6ED9EBA1h": 5565,
      "var_1028": 5566,
      "_sgn": 5567,
      "45A2": 5568,
      "B0A": 5569,
      "305": 5570,
      "785": 5571,
      "3A5": 5572,
      "3F4": 5573,
      "6F3": 5574,
      "_completion": 5575,
      "off_4FFA": 5576,
      "fds": 5577,
      "fname": 5578,
      "var_25C": 5579,
      "var_4E0": 5580,
      "42D0": 5581,
      "109h": 5582,
      "C8E": 5583,
      "651": 5584,
      "off_4B4B": 5585,
      "fault": 5586,
      "7F9": 5587,
      "86": 5588,
      "off_713": 5589,
      "C07": 5590,
      "65E": 5591,
      "5CC": 5592,
      "703": 5593,
      "633E38": 5594,
      "asc_633E38": 5595,
      "F7E": 5596,
      "F1B0": 5597,
      "_longjmp": 5598,
      "0F7h": 5599,
      "471C": 5600,
      "165": 5601,
      "rl_co": 5602,
      "6B1": 5603,
      "FBB": 5604,
      "264": 5605,
      "106h": 5606,
      "604": 5607,
      "D8F": 5608,
      "5DB": 5609,
      "41E3": 5610,
      "_fwrite_unlocked": 5611,
      "Ld": 5612,
      "782": 5613,
      "C0B": 5614,
      "6A34": 5615,
      "664": 5616,
      "F72": 5617,
      "gemv": 5618,
      "aProgram": 5619,
      "D89": 5620,
      "2B5": 5621,
      "1F2": 5622,
      "FBF": 5623,
      "mode_ptr": 5624,
      "670920": 5625,
      "ild": 5626,
      "AC9": 5627,
      "4289": 5628,
      "_hypot": 5629,
      "rpl_printf": 5630,
      "Must_": 5631,
      "aMatrixSizesAre": 5632,
      "5C8": 5633,
      "ost": 5634,
      "2DE6": 5635,
      "5B7": 5636,
      "Dy": 5637,
      "Ye": 5638,
      "602": 5639,
      "1E1": 5640,
      "6A35": 5641,
      "C8D": 5642,
      "DCD": 5643,
      "EE3": 5644,
      "rid": 5645,
      "aInternalError": 5646,
      "65D": 5647,
      "aCd": 5648,
      "6F2": 5649,
      "A09": 5650,
      "B81": 5651,
      "B02": 5652,
      "FBE": 5653,
      "3F6": 5654,
      "asc_4BF028": 5655,
      "asc_4BEE88": 5656,
      "asc_4BF9A8": 5657,
      "asc_4BD958": 5658,
      "asc_4BEBA8": 5659,
      "var_868": 5660,
      "427E": 5661,
      "C09": 5662,
      "aUser": 5663,
      "aMatrixSizeMust_": 5664,
      "14F": 5665,
      "_as": 5666,
      "2EB2": 5667,
      "534": 5668,
      "994": 5669,
      "99B": 5670,
      "5E3": 5671,
      "FBD": 5672,
      "5D2": 5673,
      "__glp_av": 5674,
      "_equal": 5675,
      "a1JJ": 5676,
      "_rpl_asprintf": 5677,
      "442D": 5678,
      "E0F": 5679,
      "90F": 5680,
      "6927": 5681,
      "FCA": 5682,
      "FB3": 5683,
      "FAE": 5684,
      "5A2": 5685,
      "7FA": 5686,
      "fr": 5687,
      "D0A": 5688,
      "A83": 5689,
      "6D6": 5690,
      "5349": 5691,
      "3AE": 5692,
      "F7B": 5693,
      "FDA": 5694,
      "FB6": 5695,
      "uting_": 5696,
      "80A0h": 5697,
      "less": 5698,
      "var_1B": 5699,
      "var_7C8": 5700,
      "B83": 5701,
      "6CCF": 5702,
      "151": 5703,
      "_glp_add": 5704,
      "_gsl_matrix_alloc": 5705,
      "IndexOutO": 5706,
      "610318": 5707,
      "_mbtou": 5708,
      "aFirstIndexOutO": 5709,
      "_rec_parser": 5710,
      "CEC": 5711,
      "F87": 5712,
      "155": 5713,
      "6B5": 5714,
      "3D3": 5715,
      "3A9": 5716,
      "FA4": 5717,
      "cmovb": 5718,
      "51EB851": 5719,
      "off_6A2C90": 5720,
      "51EB851Fh": 5721,
      "ject": 5722,
      "6C62": 5723,
      "7C4": 5724,
      "7CB": 5725,
      "6C5F90": 5726,
      "FF2": 5727,
      "addr": 5728,
      "43CA": 5729,
      "208h": 5730,
      "3090": 5731,
      "63A1": 5732,
      "onent": 5733,
      "FCB": 5734,
      "5C7": 5735,
      "4193": 5736,
      "F70": 5737,
      "F85": 5738,
      "901": 5739,
      "B8h": 5740,
      "ors": 5741,
      "B86": 5742,
      "906": 5743,
      "99E": 5744,
      "iel": 5745,
      "F10": 5746,
      "elp": 5747,
      "lear": 5748,
      "427D": 5749,
      "453D": 5750,
      "E81": 5751,
      "ris": 5752,
      "delim": 5753,
      "Sub": 5754,
      "70D": 5755,
      "BC1": 5756,
      "FB4": 5757,
      "fig": 5758,
      "reak": 5759,
      "tran": 5760,
      "locret_40F": 5761,
      "___f": 5762,
      "4480": 5763,
      "2F79": 5764,
      "6AA0": 5765,
      "FC1": 5766,
      "FDE": 5767,
      "word_46": 5768,
      "616588": 5769,
      "9Dh": 5770,
      "564": 5771,
      "41D7": 5772,
      "TE": 5773,
      "_vector": 5774,
      "_last": 5775,
      "ersion": 5776,
      "gmpC": 5777,
      "x0": 5778,
      "axpy": 5779,
      "44F7": 5780,
      "397": 5781,
      "67A780": 5782,
      "aMiscMy": 5783,
      "_transform": 5784,
      "aMiscMygmpC": 5785,
      "E0h": 5786,
      "D05": 5787,
      "cogn": 5788,
      "off_62B": 5789,
      "99C": 5790,
      "3A3": 5791,
      "rtomb": 5792,
      "_wcrtomb": 5793,
      "Ab": 5794,
      "BA0": 5795,
      "Mode": 5796,
      "ix": 5797,
      "2710h": 5798,
      "5CA": 5799,
      "714": 5800,
      "namic": 5801,
      "990": 5802,
      "min": 5803,
      "FFA": 5804,
      "var_650": 5805,
      "history_length_ptr": 5806,
      "6C6378": 5807,
      "2si": 5808,
      "F0E": 5809,
      "2E1B": 5810,
      "11000h": 5811,
      "5CE": 5812,
      "626": 5813,
      "aFread": 5814,
      "FB2": 5815,
      "list_": 5816,
      "62B728": 5817,
      "aWork": 5818,
      "0FFFFF894h": 5819,
      "ableTo": 5820,
      "43C8": 5821,
      "A02": 5822,
      "B8A": 5823,
      "B07": 5824,
      "FC5": 5825,
      "6620": 5826,
      "6798B8": 5827,
      "452E": 5828,
      "995": 5829,
      "3B2": 5830,
      "Su": 5831,
      "_gmp": 5832,
      "427C": 5833,
      "4778": 5834,
      "381": 5835,
      "25B0": 5836,
      "632": 5837,
      "154": 5838,
      "5BB": 5839,
      "41B3": 5840,
      "66C": 5841,
      "Range": 5842,
      "B85": 5843,
      "B04": 5844,
      "0AFh": 5845,
      "17BA": 5846,
      "C87": 5847,
      "99D": 5848,
      "5ED": 5849,
      "622": 5850,
      "3B3": 5851,
      "96h": 5852,
      "928h": 5853,
      "NOver": 5854,
      "ev": 5855,
      "var_4D": 5856,
      "F82": 5857,
      "_getp": 5858,
      "aSIs": 5859,
      "6E61": 5860,
      "661": 5861,
      "621": 5862,
      "5A7": 5863,
      "_start_": 5864,
      "libc": 5865,
      "aViewWould": 5866,
      "aVectorMustHave": 5867,
      "aGslGslVector": 5868,
      "aVectorLengthNM": 5869,
      "aDimensionNOver": 5870,
      "aMatrixSizeExce_0": 5871,
      "63BA00": 5872,
      "aViewWouldExten": 5873,
      "4298": 5874,
      "_gsl_ran": 5875,
      "C02": 5876,
      "c_cc": 5877,
      "6E2": 5878,
      "5EB": 5879,
      "FBA": 5880,
      "594": 5881,
      "618B": 5882,
      "tv_sec": 5883,
      "var_4B0": 5884,
      "002": 5885,
      "43AB": 5886,
      "6EA": 5887,
      "396": 5888,
      "FAF": 5889,
      "9BE": 5890,
      "asc_4BF1B0": 5891,
      "EA7": 5892,
      "AAAAAAAA": 5893,
      "asc_4BEED0": 5894,
      "asc_4BDC80": 5895,
      "asc_4BFCC7": 5896,
      "asc_4BF347": 5897,
      "So": 5898,
      "307F": 5899,
      "D82": 5900,
      "662": 5901,
      "aSyntax": 5902,
      "awk": 5903,
      "oid": 5904,
      "D03": 5905,
      "E03": 5906,
      "E06": 5907,
      "701": 5908,
      "2B1": 5909,
      "C81": 5910,
      "DCC": 5911,
      "5B1": 5912,
      "Input": 5913,
      "_pos": 5914,
      "365": 5915,
      "xmm14": 5916,
      "007": 5917,
      "42CC": 5918,
      "ino": 5919,
      "C83": 5920,
      "FA2": 5921,
      "FA9": 5922,
      "9BF": 5923,
      "EAF": 5924,
      "inv": 5925,
      "D83": 5926,
      "986": 5927,
      "aS_0": 5928,
      "3A6": 5929,
      "6230": 5930,
      "310h": 5931,
      "ast": 5932,
      "43A0": 5933,
      "681": 5934,
      "554": 5935,
      "3D1": 5936,
      "_init_": 5937,
      "Cal": 5938,
      "_9": 5939,
      "locret_41A": 5940,
      "One": 5941,
      "_Q": 5942,
      "dual": 5943,
      "erC": 5944,
      "2D2F": 5945,
      "C8F": 5946,
      "AA7": 5947,
      "7EF": 5948,
      "6F5": 5949,
      "_acc": 5950,
      "program_name": 5951,
      "trsv": 5952,
      "aLibltdlL": 5953,
      "With": 5954,
      "port": 5955,
      "4226": 5956,
      "FC3": 5957,
      "597": 5958,
      "chuz": 5959,
      "46B800": 5960,
      "aComp": 5961,
      "orris": 5962,
      "36h": 5963,
      "441E": 5964,
      "sw": 5965,
      "42E0": 5966,
      "6A2D20": 5967,
      "C8C": 5968,
      "3B5": 5969,
      "596": 5970,
      "41C3": 5971,
      "46B880": 5972,
      "aSyntaxError": 5973,
      "7D0": 5974,
      "818h": 5975,
      "CB8": 5976,
      "_10": 5977,
      "var_16": 5978,
      "var_8B8": 5979,
      "009": 5980,
      "42E8": 5981,
      "B06": 5982,
      "FE3": 5983,
      "DC9": 5984,
      "46B860": 5985,
      "46B870": 5986,
      "gramY": 5987,
      "6A9C10": 5988,
      "var_C9": 5989,
      "63D650": 5990,
      "aSv": 5991,
      "5C9": 5992,
      "5CF": 5993,
      "7BD": 5994,
      "0E830FFF8h": 5995,
      "429C": 5996,
      "4397": 5997,
      "450E": 5998,
      "C03": 5999,
      "997": 6000,
      "DC1": 6001,
      "_mbs": 6002,
      "_gsl_blas_ddot": 6003,
      "616820": 6004,
      "_list_ptr": 6005,
      "KK": 6006,
      "6E6": 6007,
      "99A": 6008,
      "AC4": 6009,
      "5BD": 6010,
      "7E9": 6011,
      "6CB478": 6012,
      "00B": 6013,
      "6E5": 6014,
      "off_4B5": 6015,
      "3B8": 6016,
      "EF0": 6017,
      "eg": 6018,
      "var_548": 6019,
      "var_C1": 6020,
      "asnprintf": 6021,
      "C0E": 6022,
      "FC4": 6023,
      "0DCh": 6024,
      "asc_4BFD": 6025,
      "asc_4BDD": 6026,
      "_gsl_sp": 6027,
      "458A": 6028,
      "_osip_message": 6029,
      "aGlpSet": 6030,
      "acter": 6031,
      "_gsl_sf_ln": 6032,
      "aFwriteFailed": 6033,
      "_osip_mutex_unlock": 6034,
      "aHyperg": 6035,
      "aFreadFailed": 6036,
      "6000h": 6037,
      "930": 6038,
      "undo": 6039,
      "4054": 6040,
      "vent": 6041,
      "locret_1C": 6042,
      "onal": 6043,
      "0E000h": 6044,
      "AAA": 6045,
      "FAD": 6046,
      "5D3": 6047,
      "CanT": 6048,
      "var_F1": 6049,
      "FF1": 6050,
      "var_254": 6051,
      "var_6A": 6052,
      "4515": 6053,
      "F07": 6054,
      "FFFFFFh": 6055,
      "DC7": 6056,
      "F73": 6057,
      "5D7": 6058,
      "aStdio": 6059,
      "Dynamic": 6060,
      "630h": 6061,
      "var_314": 6062,
      "43EC": 6063,
      "5E2": 6064,
      "0C1h": 6065,
      "Requi": 6066,
      "429B": 6067,
      "E02": 6068,
      "locret_53": 6069,
      "4659": 6070,
      "4F90": 6071,
      "3E6": 6072,
      "_mat": 6073,
      "0C4h": 6074,
      "5F5": 6075,
      "st_dev": 6076,
      "FileS": 6077,
      "aAwkgramY": 6078,
      "3F8": 6079,
      "var_3F": 6080,
      "C85": 6081,
      "99F": 6082,
      "FC2": 6083,
      "DCB": 6084,
      "3B1": 6085,
      "59E": 6086,
      "5A9": 6087,
      "5AF": 6088,
      "aDo": 6089,
      "aRec": 6090,
      "aAttemptTo": 6091,
      "aDebu": 6092,
      "770": 6093,
      "var_1070": 6094,
      "2FA6": 6095,
      "1E5": 6096,
      "off_4B4C": 6097,
      "617A": 6098,
      "aOutOfDynamic": 6099,
      "aOutOfDynamicMe": 6100,
      "F0F": 6101,
      "C84": 6102,
      "3E5": 6103,
      "DC3": 6104,
      "2DC878": 6105,
      "Many": 6106,
      "AA0": 6107,
      "Ret": 6108,
      "427A": 6109,
      "l_1": 6110,
      "A03": 6111,
      "6053": 6112,
      "00000": 6113,
      "5360": 6114,
      "3A4": 6115,
      "AC3": 6116,
      "2D1F68": 6117,
      "2DDDA8": 6118,
      "2DE6F8": 6119,
      "85": 6120,
      "BC6": 6121,
      "3B6": 6122,
      "97A": 6123,
      "Source": 6124,
      "_gsl_matrix_con": 6125,
      "616568": 6126,
      "__rl_find": 6127,
      "_accum": 6128,
      "Res": 6129,
      "mc": 6130,
      "var_5E": 6131,
      "44D0": 6132,
      "4488": 6133,
      "902": 6134,
      "3E4": 6135,
      "3D5": 6136,
      "aFormat": 6137,
      "_rec_parse": 6138,
      "FD0": 6139,
      "603": 6140,
      "5C6": 6141,
      "_by_name": 6142,
      "944": 6143,
      "recogn": 6144,
      "FE4": 6145,
      "FB5": 6146,
      "aSSD": 6147,
      "6C6BB4": 6148,
      "A86": 6149,
      "C0D": 6150,
      "Int": 6151,
      "cket": 6152,
      "aCouldNot": 6153,
      "C10": 6154,
      "ij": 6155,
      "useconds": 6156,
      "long_": 6157,
      "4151": 6158,
      "version": 6159,
      "c_0": 6160,
      "5EA": 6161,
      "5C3": 6162,
      "aMax": 6163,
      "9E4": 6164,
      "41D3": 6165,
      "ageS": 6166,
      "453EE7": 6167,
      "113h": 6168,
      "var_4A0": 6169,
      "42C8": 6170,
      "42FD": 6171,
      "_for": 6172,
      "433C": 6173,
      "_string": 6174,
      "ECA": 6175,
      "453E99": 6176,
      "_mp": 6177,
      "005": 6178,
      "EE4": 6179,
      "616590": 6180,
      "453E83": 6181,
      "453F25": 6182,
      "454554": 6183,
      "__glp_dmx_read_field": 6184,
      "var_E9": 6185,
      "5E7": 6186,
      "asc_46": 6187,
      "9C4": 6188,
      "C30": 6189,
      "_sd": 6190,
      "ait": 6191,
      "algC": 6192,
      "D06": 6193,
      "294h": 6194,
      "12Ch": 6195,
      "5AD": 6196,
      "its": 6197,
      "7DA": 6198,
      "524": 6199,
      "8000000000000h": 6200,
      "_mbchar": 6201,
      "aIntoptC": 6202,
      "yperg_": 6203,
      "_gsl_sf_hyperg_": 6204,
      "562": 6205,
      "bi": 6206,
      "mC": 6207,
      "00A": 6208,
      "4280": 6209,
      "asc_42B5": 6210,
      "Head": 6211,
      "_short_name": 6212,
      "program_invocation_short_name": 6213,
      "rectory": 6214,
      "4263": 6215,
      "1348": 6216,
      "C89": 6217,
      "7E3": 6218,
      "7EE": 6219,
      "Empty": 6220,
      "Lp": 6221,
      "Pre": 6222,
      "var_75": 6223,
      "D85": 6224,
      "4AD8": 6225,
      "575": 6226,
      "F92": 6227,
      "F7F": 6228,
      "3B7": 6229,
      "ann": 6230,
      "5D4": 6231,
      "aPartition": 6232,
      "_unlink": 6233,
      "aS_3": 6234,
      "brk": 6235,
      "xmalloc": 6236,
      "4565": 6237,
      "2C71": 6238,
      "5EF": 6239,
      "5B3": 6240,
      "off_4B47": 6241,
      "aUnableTo": 6242,
      "386": 6243,
      "4D48": 6244,
      "ils": 6245,
      "utils": 6246,
      "800000h": 6247,
      "5BE": 6248,
      "FA6": 6249,
      "egin": 6250,
      "var_28C": 6251,
      "4320": 6252,
      "4516": 6253,
      "ACF": 6254,
      "aToo": 6255,
      "E40": 6256,
      "for": 6257,
      "4560": 6258,
      "F81": 6259,
      "67A5": 6260,
      "5E6": 6261,
      "591": 6262,
      "9E7": 6263,
      "aOff": 6264,
      "xmmword_2D06A0": 6265,
      "xmmword_2D06B0": 6266,
      "xmmword_2D2520": 6267,
      "xmmword_2D2530": 6268,
      "xmmword_2D1BD0": 6269,
      "xmmword_2D1BE0": 6270,
      "xmmword_2C5E20": 6271,
      "xmmword_2C5E30": 6272,
      "3FC": 6273,
      "Dong": 6274,
      "_obstack_newchunk": 6275,
      "_prompt": 6276,
      "kwan": 6277,
      "eta": 6278,
      "4380": 6279,
      "20A2": 6280,
      "regC": 6281,
      "var_680": 6282,
      "locret_13": 6283,
      "4688": 6284,
      "00000000h": 6285,
      "3C6": 6286,
      "FA1": 6287,
      "FA5": 6288,
      "9CC": 6289,
      "_osip_tr": 6290,
      "Color": 6291,
      "aMultiregC": 6292,
      "aHomeDong": 6293,
      "kwanD": 6294,
      "_osip_trace": 6295,
      "aHomeDongkwanD": 6296,
      "00D": 6297,
      "103h": 6298,
      "F03": 6299,
      "off_4B3F": 6300,
      "CB00": 6301,
      "isof": 6302,
      "1000000h": 6303,
      "var_1064": 6304,
      "4357": 6305,
      "D0D": 6306,
      "996": 6307,
      "999": 6308,
      "3C5": 6309,
      "59C": 6310,
      "asc_42A3": 6311,
      "cnt": 6312,
      "l_find": 6313,
      "6CCD": 6314,
      "ative": 6315,
      "F9F": 6316,
      "5A3": 6317,
      "aDu": 6318,
      "_lt_": 6319,
      "exponent": 6320,
      "recognized": 6321,
      "400E": 6322,
      "425A": 6323,
      "433B": 6324,
      "FE5": 6325,
      "6C80": 6326,
      "_rec_field_value": 6327,
      "D90": 6328,
      "FE7": 6329,
      "398h": 6330,
      "5E5": 6331,
      "7C7": 6332,
      "616D": 6333,
      "690A": 6334,
      "63A160": 6335,
      "262": 6336,
      "4409": 6337,
      "E28": 6338,
      "var_4A8": 6339,
      "42A0": 6340,
      "44B8": 6341,
      "5E1": 6342,
      "F79": 6343,
      "AA3": 6344,
      "7EC": 6345,
      "920": 6346,
      "var_8C0": 6347,
      "006": 6348,
      "ull": 6349,
      "601": 6350,
      "A85": 6351,
      "C82": 6352,
      "392": 6353,
      "F77": 6354,
      "593": 6355,
      "7C6": 6356,
      "DD3": 6357,
      "r13b": 6358,
      "7BF": 6359,
      "713B6C": 6360,
      "_rec_rset_mset": 6361,
      "_mpfr": 6362,
      "Mat": 6363,
      "Sol": 6364,
      "4121": 6365,
      "42FC": 6366,
      "4BD0": 6367,
      "off_3": 6368,
      "5C2": 6369,
      "Null_0": 6370,
      "666666": 6371,
      "cntl": 6372,
      "3BC": 6373,
      "512": 6374,
      "gory": 6375,
      "hlt": 6376,
      "j_rl_": 6377,
      "leep": 6378,
      "locret_40B": 6379,
      "coding": 6380,
      "474C": 6381,
      "59A": 6382,
      "7CC": 6383,
      "9C3": 6384,
      "var_1100": 6385,
      "_perror": 6386,
      "ategory": 6387,
      "Mean": 6388,
      "agonal": 6389,
      "__glp_spx": 6390,
      "aRcUseC": 6391,
      "_start_main": 6392,
      "libc_start_main": 6393,
      "_init_proc": 6394,
      "ger": 6395,
      "var_4F0": 6396,
      "var_4F8": 6397,
      "edir": 6398,
      "4BCE": 6399,
      "DCE": 6400,
      "9AD": 6401,
      "aLt": 6402,
      "108D": 6403,
      "3FF00h": 6404,
      "symm": 6405,
      "3B4": 6406,
      "592": 6407,
      "61C": 6408,
      "003": 6409,
      "451C": 6410,
      "D09": 6411,
      "4777": 6412,
      "FE9": 6413,
      "F91": 6414,
      "222": 6415,
      "7E7": 6416,
      "7DF": 6417,
      "791": 6418,
      "Ext": 6419,
      "4255": 6420,
      "FB1": 6421,
      "aNppNpp6C": 6422,
      "fromcode": 6423,
      "_dup2": 6424,
      "agC": 6425,
      "var_29C": 6426,
      "var_8D0": 6427,
      "42B0": 6428,
      "576": 6429,
      "395": 6430,
      "EFA0": 6431,
      "__glp_str": 6432,
      "_fgets": 6433,
      "aNew": 6434,
      "34E": 6435,
      "5BC": 6436,
      "FA0": 6437,
      "Find": 6438,
      "4000": 6439,
      "D07": 6440,
      "68AB": 6441,
      "aSCannot": 6442,
      "3D6": 6443,
      "9AB": 6444,
      "7AB": 6445,
      "off_4B48": 6446,
      "aIso": 6447,
      "var_654": 6448,
      "43CB": 6449,
      "6D19": 6450,
      "3D2": 6451,
      "595": 6452,
      "aDis": 6453,
      "7BA": 6454,
      "orriso": 6455,
      "3A8": 6456,
      "var_7E8": 6457,
      "setns": 6458,
      "DCF": 6459,
      "AA1": 6460,
      "DBB": 6461,
      "aUtf": 6462,
      "uste": 6463,
      "off_60A3": 6464,
      "Any": 6465,
      "aMemory": 6466,
      "off_713390": 6467,
      "eriv": 6468,
      "_median": 6469,
      "FD2": 6470,
      "aGamm": 6471,
      "793": 6472,
      "807Ch": 6473,
      "_gsl_sf_pow": 6474,
      "raw": 6475,
      "_gsl_sf_pow_int": 6476,
      "649": 6477,
      "handler": 6478,
      "42A9": 6479,
      "43E8": 6480,
      "D84": 6481,
      "_member": 6482,
      "rl_in": 6483,
      "221": 6484,
      "5D5": 6485,
      "5DA": 6486,
      "631638": 6487,
      "66666667h": 6488,
      "var_4D8": 6489,
      "locret_22": 6490,
      "4463": 6491,
      "2EA0": 6492,
      "3C2": 6493,
      "rl_undo": 6494,
      "FC7": 6495,
      "rl_undo_list_ptr": 6496,
      "100000h": 6497,
      "Per": 6498,
      "4465": 6499,
      "5BA": 6500,
      "7BE": 6501,
      "EE7": 6502,
      "3FFFFFFEh": 6503,
      "_13": 6504,
      "4265": 6505,
      "43F8": 6506,
      "FE2": 6507,
      "AA2": 6508,
      "5B2": 6509,
      "_rl_bind": 6510,
      "_clear": 6511,
      "6FB": 6512,
      "GG": 6513,
      "434A": 6514,
      "C00h": 6515,
      "aSDE": 6516,
      "79F": 6517,
      "7FF8000000000000h": 6518,
      "executing_": 6519,
      "82": 6520,
      "4270": 6521,
      "_str_ptr": 6522,
      "prop": 6523,
      "6394": 6524,
      "off_47": 6525,
      "FC9": 6526,
      "3A2": 6527,
      "7CD": 6528,
      "_error_at": 6529,
      "aMplMpl2C": 6530,
      "B808": 6531,
      "_numeric": 6532,
      "_mode_str_ptr": 6533,
      "_error_at_line": 6534,
      "Wr": 6535,
      "4358": 6536,
      "r9w": 6537,
      "44E0": 6538,
      "3D4": 6539,
      "5D6": 6540,
      "5AB": 6541,
      "7CF": 6542,
      "DDE": 6543,
      "_rec_std": 6544,
      "trol_": 6545,
      "aPermutation": 6546,
      "_rec_std_field_name": 6547,
      "Dis": 6548,
      "_append": 6549,
      "427B": 6550,
      "42BB": 6551,
      "4519": 6552,
      "FCD": 6553,
      "391": 6554,
      "aFunction": 6555,
      "5AE": 6556,
      "3F5": 6557,
      "93h": 6558,
      "aOsi": 6559,
      "aSymbol": 6560,
      "64E": 6561,
      "GOR": 6562,
      "gColor": 6563,
      "439C": 6564,
      "c_is": 6565,
      "571": 6566,
      "372": 6567,
      "FD5": 6568,
      "5B9": 6569,
      "0C0000000h": 6570,
      "5A0h": 6571,
      "CATE": 6572,
      "OfRan": 6573,
      "mbin": 6574,
      "_gsl_stats_float": 6575,
      "_gsl_stats_long_double": 6576,
      "aApiM": 6577,
      "_gsl_blas_daxpy": 6578,
      "_vfprintf": 6579,
      "UC_CATE": 6580,
      "GORY_": 6581,
      "UC_CATEGORY_": 6582,
      "367": 6583,
      "9F0": 6584,
      "var_2FC": 6585,
      "43C0": 6586,
      "45C8": 6587,
      "2E13": 6588,
      "9CA": 6589,
      "cmovge": 6590,
      "450B": 6591,
      "6910": 6592,
      "5A5": 6593,
      "aTar": 6594,
      "ument": 6595,
      "609B60": 6596,
      "__glp_str2": 6597,
      "D68": 6598,
      "alform": 6599,
      "4236": 6600,
      "var_C5": 6601,
      "535D": 6602,
      "r14b": 6603,
      "5B6": 6604,
      "7DE": 6605,
      "62B718": 6606,
      "_gsl_block_complex": 6607,
      "alformed": 6608,
      "740": 6609,
      "lear_": 6610,
      "38Ch": 6611,
      "7C3": 6612,
      "ss2si": 6613,
      "7A3": 6614,
      "cvttss2si": 6615,
      "6CCE24": 6616,
      "6346F0": 6617,
      "315": 6618,
      "C00": 6619,
      "andard": 6620,
      "2D16": 6621,
      "F71": 6622,
      "DD4": 6623,
      "_atan": 6624,
      "strdup": 6625,
      "979": 6626,
      "4490": 6627,
      "DC2": 6628,
      "617B": 6629,
      "_gsl_blas_dgemv": 6630,
      "710": 6631,
      "Table": 6632,
      "42AC": 6633,
      "locret_49": 6634,
      "164h": 6635,
      "63BB": 6636,
      "F95": 6637,
      "F75": 6638,
      "9D6": 6639,
      "ister": 6640,
      "62F780": 6641,
      "Exha": 6642,
      "6346A0": 6643,
      "off_6C5EC0": 6644,
      "261": 6645,
      "case": 6646,
      "kip": 6647,
      "var_B9": 6648,
      "4299": 6649,
      "1360": 6650,
      "298h": 6651,
      "FD1": 6652,
      "_unary": 6653,
      "isto": 6654,
      "_aco": 6655,
      "___osip_transaction": 6656,
      "_gsl_permutation_free": 6657,
      "__glp_mpl_make_unary": 6658,
      "var_1020": 6659,
      "4900": 6660,
      "111h": 6661,
      "AC1": 6662,
      "AC6": 6663,
      "5F1": 6664,
      "9BB": 6665,
      "Answ": 6666,
      "Answer": 6667,
      "Dat": 6668,
      "206E": 6669,
      "9BA": 6670,
      "history_": 6671,
      "4DDB": 6672,
      "oly": 6673,
      "rpl_optind": 6674,
      "616870": 6675,
      "off_6C5F20": 6676,
      "31C": 6677,
      "566": 6678,
      "FFFFFFFFFFFFFFFh": 6679,
      "49C0": 6680,
      "ACD": 6681,
      "AAF": 6682,
      "8080": 6683,
      "_tan": 6684,
      "eyword": 6685,
      "31E": 6686,
      "pthread": 6687,
      "_fch": 6688,
      "vel": 6689,
      "4460": 6690,
      "2E30": 6691,
      "991": 6692,
      "DC4": 6693,
      "EAD": 6694,
      "6A32A8": 6695,
      "var_141": 6696,
      "44D5": 6697,
      "63E5": 6698,
      "F20": 6699,
      "s_0": 6700,
      "l_lan": 6701,
      "454C": 6702,
      "60CB00": 6703,
      "4A90": 6704,
      "5C1": 6705,
      "5A4": 6706,
      "5A6": 6707,
      "EC9": 6708,
      "aLd": 6709,
      "_nl_lan": 6710,
      "62E780": 6711,
      "off_6A2CA0": 6712,
      "ginfo": 6713,
      "_nl_langinfo": 6714,
      "947": 6715,
      "sx": 6716,
      "var_10C8": 6717,
      "42F8": 6718,
      "42BC": 6719,
      "4222": 6720,
      "434B": 6721,
      "4338": 6722,
      "44C0": 6723,
      "44BA": 6724,
      "6395": 6725,
      "aS_2": 6726,
      "3C1": 6727,
      "7C2": 6728,
      "9E6": 6729,
      "aS_8": 6730,
      "0E030FE": 6731,
      "327": 6732,
      "E48": 6733,
      "Medi": 6734,
      "TM": 6735,
      "4277": 6736,
      "4BEB": 6737,
      "992": 6738,
      "_gsl_vector_scale": 6739,
      "asc_4B70": 6740,
      "_gsl_vector_set_zero": 6741,
      "_failure": 6742,
      "_gsl_blas_dtrsv": 6743,
      "aGslSfB": 6744,
      "func_ptr": 6745,
      "IndexOutOfRan": 6746,
      "__gdbm_f": 6747,
      "tdlC": 6748,
      "_sgn_e": 6749,
      "aLibltdlLtdlC": 6750,
      "istogram": 6751,
      "0x": 6752,
      "400D": 6753,
      "aFind": 6754,
      "ank": 6755,
      "0D868h": 6756,
      "aPleaseAnswer": 6757,
      "aPleaseAnswerYe": 6758,
      "var_508": 6759,
      "4339": 6760,
      "450A": 6761,
      "450F": 6762,
      "4746": 6763,
      "AAB": 6764,
      "ECC": 6765,
      "335": 6766,
      "off_6A2C68": 6767,
      "7E0": 6768,
      "4337": 6769,
      "4618": 6770,
      "5E9": 6771,
      "5D1": 6772,
      "4608": 6773,
      "off_25ACD0": 6774,
      "46F0": 6775,
      "ati": 6776,
      "C05": 6777,
      "0E6h": 6778,
      "0CDh": 6779,
      "7E1": 6780,
      "aUse": 6781,
      "aTri": 6782,
      "a02d": 6783,
      "aLength": 6784,
      "var_109": 6785,
      "clu": 6786,
      "FD6": 6787,
      "458C": 6788,
      "rl_completion": 6789,
      "ields": 6790,
      "F50": 6791,
      "4368": 6792,
      "___gmp": 6793,
      "2FBC": 6794,
      "_remove": 6795,
      "ECD": 6796,
      "9BD": 6797,
      "9D4": 6798,
      "DB7": 6799,
      "aIf": 6800,
      "891A": 6801,
      "aInterpret": 6802,
      "alse": 6803,
      "431D": 6804,
      "4518": 6805,
      "6D16": 6806,
      "993": 6807,
      "AC2": 6808,
      "9EB": 6809,
      "iven": 6810,
      "FB0": 6811,
      "tract": 6812,
      "429A": 6813,
      "4330": 6814,
      "6911": 6815,
      "3F2": 6816,
      "9D9": 6817,
      "a1KK": 6818,
      "0FA": 6819,
      "DS": 6820,
      "vaC": 6821,
      "xmm15": 6822,
      "_gnu": 6823,
      "42F7": 6824,
      "280000h": 6825,
      "2D2Dh": 6826,
      "1E8h": 6827,
      "AC5": 6828,
      "F96": 6829,
      "974": 6830,
      "9DB": 6831,
      "CCC": 6832,
      "aLp": 6833,
      "st_sub": 6834,
      "40020h": 6835,
      "_dev": 6836,
      "Config": 6837,
      "0D800h": 6838,
      "signal": 6839,
      "__glp_mpl_create": 6840,
      "aBflibSvaC": 6841,
      "_gsl_sf_gamma": 6842,
      "139A8h": 6843,
      "_acce": 6844,
      "_rl_bind_key": 6845,
      "_gnu_dev": 6846,
      "l_get_": 6847,
      "4012": 6848,
      "3E2": 6849,
      "0DFFFh": 6850,
      "aAccess": 6851,
      "ToS": 6852,
      "_cance": 6853,
      "2F98": 6854,
      "2F99": 6855,
      "7CE": 6856,
      "9C2": 6857,
      "DDF": 6858,
      "aFprintfFailed": 6859,
      "B0h": 6860,
      "cp": 6861,
      "var_518": 6862,
      "7C9": 6863,
      "9CB": 6864,
      "5F2": 6865,
      "7A7": 6866,
      "6DF6D4": 6867,
      "Limit": 6868,
      "off_62DD98": 6869,
      "_mbsinit": 6870,
      "323": 6871,
      "vd": 6872,
      "v_0": 6873,
      "variance": 6874,
      "_fcntl": 6875,
      "ACB": 6876,
      "ECE": 6877,
      "6F1": 6878,
      "888": 6879,
      "Neg": 6880,
      "748": 6881,
      "aus": 6882,
      "var_610": 6883,
      "var_660": 6884,
      "5F6": 6885,
      "Def": 6886,
      "pthread_cance": 6887,
      "pthread_cancel_ptr": 6888,
      "521": 6889,
      "AB0": 6890,
      "yl": 6891,
      "425F": 6892,
      "4539": 6893,
      "4700": 6894,
      "6DD6": 6895,
      "9D7": 6896,
      "EA9": 6897,
      "_strmblen": 6898,
      "aInterpretH": 6899,
      "0FBh": 6900,
      "var_95": 6901,
      "44D8": 6902,
      "asc_45": 6903,
      "aFalse": 6904,
      "_group": 6905,
      "fldcw": 6906,
      "336": 6907,
      "KE": 6908,
      "Vari": 6909,
      "rot": 6910,
      "tegr": 6911,
      "seterr": 6912,
      "5030": 6913,
      "ating": 6914,
      "63B3": 6915,
      "ACA": 6916,
      "ense": 6917,
      "EC5": 6918,
      "77F": 6919,
      "_rec_at": 6920,
      "getc": 6921,
      "_ungetc": 6922,
      "LengthKE": 6923,
      "_control_": 6924,
      "aSubsetLengthKE": 6925,
      "aGslSfBessel": 6926,
      "758": 6927,
      "938": 6928,
      "A0h": 6929,
      "EE0": 6930,
      "var_4B": 6931,
      "var_7C0": 6932,
      "43AA": 6933,
      "435A": 6934,
      "371": 6935,
      "7CA": 6936,
      "9E9": 6937,
      "BD7": 6938,
      "62BA": 6939,
      "2CFA": 6940,
      "5B4": 6941,
      "DBD": 6942,
      "asc_4BEFA0": 6943,
      "off_4B49": 6944,
      "2E8BA": 6945,
      "asc_4BF417": 6946,
      "asc_4BF280": 6947,
      "asc_4BFD97": 6948,
      "asc_4BDD50": 6949,
      "var_274": 6950,
      "43EA": 6951,
      "4590": 6952,
      "2DC7": 6953,
      "13Dh": 6954,
      "47C0": 6955,
      "2C2B": 6956,
      "2F70": 6957,
      "6D12": 6958,
      "FD3": 6959,
      "EC3": 6960,
      "7C1": 6961,
      "_create": 6962,
      "Output": 6963,
      "aS_5": 6964,
      "ave": 6965,
      "pattern": 6966,
      "426E": 6967,
      "469E": 6968,
      "C06": 6969,
      "_use": 6970,
      "vert": 6971,
      "790": 6972,
      "867": 6973,
      "var_B5": 6974,
      "44C8": 6975,
      "4657": 6976,
      "1B6h": 6977,
      "3D70A": 6978,
      "MustB": 6979,
      "keyseq": 6980,
      "_11": 6981,
      "xstrdup": 6982,
      "var_F": 6983,
      "internal": 6984,
      "rl_di": 6985,
      "7D9": 6986,
      "_us": 6987,
      "aVal": 6988,
      "Mip": 6989,
      "ii": 6990,
      "qC": 6991,
      "var_26C": 6992,
      "4064": 6993,
      "7AD": 6994,
      "EBF": 6995,
      "obj": 6996,
      "Comp": 6997,
      "_context": 6998,
      "New": 6999,
      "aTooMany": 7000,
      "stem": 7001,
      "6398": 7002,
      "4DE1": 7003,
      "0E7h": 7004,
      "F76": 7005,
      "macs": 7006,
      "9CE": 7007,
      "DD1": 7008,
      "7B7": 7009,
      "BBh": 7010,
      "aSS_0": 7011,
      "aThis": 7012,
      "aMemoryExha": 7013,
      "aMemoryExhauste": 7014,
      "6FF": 7015,
      "869": 7016,
      "E65": 7017,
      "Nn": 7018,
      "var_65": 7019,
      "in_0": 7020,
      "locret_B": 7021,
      "_bind": 7022,
      "9C6": 7023,
      "_inc": 7024,
      "_inverse": 7025,
      "7FFFFFFFFFFFFFFh": 7026,
      "ook_ptr": 7027,
      "_rec_sex_ast_node_link": 7028,
      "_gsl_interp_acce": 7029,
      "_gsl_blas_dscal": 7030,
      "var_7A": 7031,
      "var_7D": 7032,
      "44CC": 7033,
      "aS_1": 7034,
      "7C5": 7035,
      "97D": 7036,
      "cept": 7037,
      "6A8200": 7038,
      "aHd": 7039,
      "compar": 7040,
      "313": 7041,
      "475D": 7042,
      "2E7F": 7043,
      "6D17": 7044,
      "9DA": 7045,
      "7A9": 7046,
      "__glp_get_": 7047,
      "__glp_npp_add": 7048,
      "__glp_mpl_eval_numeric": 7049,
      "aCharset": 7050,
      "var_520": 7051,
      "var_530": 7052,
      "var_6D": 7053,
      "var_930": 7054,
      "C86": 7055,
      "5B5": 7056,
      "9E3": 7057,
      "7D3": 7058,
      "asc_4252": 7059,
      "25C1": 7060,
      "973": 7061,
      "aDc": 7062,
      "aEval": 7063,
      "92h": 7064,
      "3d": 7065,
      "ok": 7066,
      "tent": 7067,
      "44B0": 7068,
      "4448": 7069,
      "EC2": 7070,
      "9B5": 7071,
      "asc_4B65": 7072,
      "_norm": 7073,
      "_dec": 7074,
      "228h": 7075,
      "348": 7076,
      "30000h": 7077,
      "4420": 7078,
      "emp": 7079,
      "431E": 7080,
      "6DF8": 7081,
      "7A6": 7082,
      "7AE": 7083,
      "7B9": 7084,
      "cmovg": 7085,
      "80000001h": 7086,
      "431A": 7087,
      "4470": 7088,
      "aNppNpp3C": 7089,
      "AttemptTo": 7090,
      "asc_4253E0": 7091,
      "B00": 7092,
      "Gn": 7093,
      "Match": 7094,
      "ach": 7095,
      "430B": 7096,
      "aMs": 7097,
      "972": 7098,
      "Link": 7099,
      "leanup": 7100,
      "64C": 7101,
      "set_last": 7102,
      "var_67": 7103,
      "4211": 7104,
      "50s": 7105,
      "44FC": 7106,
      "var_980": 7107,
      "rl_filename": 7108,
      "_bsearch": 7109,
      "5A1": 7110,
      "3F1": 7111,
      "9Ah": 7112,
      "CD1": 7113,
      "mplete": 7114,
      "aMatrixColumn": 7115,
      "uteSourceC": 7116,
      "1294Ch": 7117,
      "Start": 7118,
      "41FF53": 7119,
      "aWarning_": 7120,
      "aStrlen": 7121,
      "_gsl_sf_lngamma_sgn_e": 7122,
      "_lt__set_last": 7123,
      "aPermuteSourceC": 7124,
      "__jit_synth_inc": 7125,
      "__jit_synth_dec": 7126,
      "aSimplexSpydual": 7127,
      "_lt__set_last_error": 7128,
      "0F8B": 7129,
      "E50": 7130,
      "4318": 7131,
      "off_5": 7132,
      "off_616": 7133,
      "aCol": 7134,
      "BA7": 7135,
      "7F920": 7136,
      "0F8B8h": 7137,
      "_div": 7138,
      "308h": 7139,
      "aSError": 7140,
      "3A1": 7141,
      "97B": 7142,
      "7F650": 7143,
      "62B8A4": 7144,
      "63178C": 7145,
      "7FDB0": 7146,
      "_equal_p": 7147,
      "7FA00": 7148,
      "___gmpz": 7149,
      "ting_": 7150,
      "4353": 7151,
      "624h": 7152,
      "aMalformed": 7153,
      "EB9": 7154,
      "670A80": 7155,
      "F31": 7156,
      "aTime": 7157,
      "_handler": 7158,
      "_rl_color": 7159,
      "var_1030": 7160,
      "41F6": 7161,
      "42DC": 7162,
      "C01": 7163,
      "3C0h": 7164,
      "9EF": 7165,
      "9DE": 7166,
      "BD9": 7167,
      "_res": 7168,
      "st_ino": 7169,
      "329": 7170,
      "jnp": 7171,
      "6C638": 7172,
      "1320": 7173,
      "4E3A": 7174,
      "6A5B": 7175,
      "9AE": 7176,
      "aPass": 7177,
      "aXorriso": 7178,
      "__glp_mpl_expression": 7179,
      "DD0": 7180,
      "42A7": 7181,
      "10Eh": 7182,
      "452F": 7183,
      "asc_4B4F": 7184,
      "62D26C": 7185,
      "62D384": 7186,
      "_rec_type": 7187,
      "670E": 7188,
      "61A6F0": 7189,
      "ylA": 7190,
      "64F": 7191,
      "9C8": 7192,
      "Id": 7193,
      "ble": 7194,
      "4327": 7195,
      "446B": 7196,
      "var_80C": 7197,
      "3E1": 7198,
      "9E5": 7199,
      "794": 7200,
      "var_1178": 7201,
      "317": 7202,
      "4408": 7203,
      "Fo": 7204,
      "lf": 7205,
      "mad": 7206,
      "var_870": 7207,
      "arg_40": 7208,
      "6DD7": 7209,
      "0CCh": 7210,
      "7A1": 7211,
      "__glp_mpl_format": 7212,
      "off_5000": 7213,
      "7FE": 7214,
      "CA0": 7215,
      "ID": 7216,
      "asi": 7217,
      "genC": 7218,
      "var_618": 7219,
      "_fte": 7220,
      "431C": 7221,
      "var_910": 7222,
      "456B": 7223,
      "44FA": 7224,
      "2FC7": 7225,
      "4F28": 7226,
      "FC00": 7227,
      "7A4": 7228,
      "_rl_out": 7229,
      "_fputc_unlocked": 7230,
      "4008": 7231,
      "_osip_": 7232,
      "_ferror_unlocked": 7233,
      "_gsl_interp_bsearch": 7234,
      "_gsl_multifit_linear_": 7235,
      "InitC": 7236,
      "32A": 7237,
      "31D": 7238,
      "3FD": 7239,
      "var_7A8": 7240,
      "0F1h": 7241,
      "9A9": 7242,
      "9EA": 7243,
      "9ED": 7244,
      "_comp": 7245,
      "428A": 7246,
      "Lines": 7247,
      "_rec_record_mset": 7248,
      "645": 7249,
      "CB0": 7250,
      "fer": 7251,
      "var_8E8": 7252,
      "4024": 7253,
      "202C": 7254,
      "452C": 7255,
      "var_394": 7256,
      "42A8": 7257,
      "var_900": 7258,
      "45BC": 7259,
      "locret_41B": 7260,
      "2D8h": 7261,
      "466B": 7262,
      "2546": 7263,
      "7E2": 7264,
      "off_4B50": 7265,
      "_rl_callback": 7266,
      "CF1": 7267,
      "0FFFFFFFFFFFFFFFCh": 7268,
      "option": 7269,
      "115188": 7270,
      "asc_423C": 7271,
      "inbytesleft": 7272,
      "44EE": 7273,
      "DC5": 7274,
      "AA5": 7275,
      "var_294": 7276,
      "129h": 7277,
      "a0x": 7278,
      "aErrfile": 7279,
      "_write": 7280,
      "var_82": 7281,
      "var_4E8": 7282,
      "42FB": 7283,
      "locret_4A": 7284,
      "7018h": 7285,
      "4BB0": 7286,
      "62B808": 7287,
      "EC1": 7288,
      "0F3h": 7289,
      "7DB": 7290,
      "aBad": 7291,
      "428B": 7292,
      "631640": 7293,
      "1158D8": 7294,
      "114B18": 7295,
      "CEC50": 7296,
      "Ok": 7297,
      "var_688": 7298,
      "locret_42D": 7299,
      "2EEE": 7300,
      "9C9": 7301,
      "aHelp": 7302,
      "2E88": 7303,
      "6A5C30": 7304,
      "fl": 7305,
      "class": 7306,
      "2FBA": 7307,
      "off_12": 7308,
      "DD2": 7309,
      "CE5C0": 7310,
      "115368": 7311,
      "aOnAttemptTo": 7312,
      "663": 7313,
      "xit": 7314,
      "unct": 7315,
      "AC7": 7316,
      "9B7": 7317,
      "CE490": 7318,
      "CDFF0": 7319,
      "aType": 7320,
      "icator": 7321,
      "81": 7322,
      "FC0": 7323,
      "Nv": 7324,
      "Time": 7325,
      "aIndexOutOfRan": 7326,
      "eof": 7327,
      "editing_": 7328,
      "42AD": 7329,
      "2D56": 7330,
      "diagC": 7331,
      "_glp_get_num": 7332,
      "1F4h": 7333,
      "aSrc": 7334,
      "rl_editing_": 7335,
      "6B63": 7336,
      "ssx0": 7337,
      "DDB": 7338,
      "9A4": 7339,
      "_ce": 7340,
      "_cust": 7341,
      "_gsl_sf_f": 7342,
      "osip_malloc": 7343,
      "6A81EC": 7344,
      "aDraftGlpssx0": 7345,
      "670AE8": 7346,
      "safe": 7347,
      "414720": 7348,
      "c_unsafe": 7349,
      "act_e": 7350,
      "11008h": 7351,
      "6716E8": 7352,
      "aOutOfMemory": 7353,
      "Minisat": 7354,
      "aWrittenBySSSSS": 7355,
      "_mbtouc_unsafe": 7356,
      "aOsip": 7357,
      "aIndexOutOfRang_": 7358,
      "rl_editing_mode_ptr": 7359,
      "_custom": 7360,
      "Writ": 7361,
      "10DC": 7362,
      "44CA": 7363,
      "ctl": 7364,
      "0F2h": 7365,
      "9D3": 7366,
      "aGen": 7367,
      "aAlp": 7368,
      "4122B6": 7369,
      "412291": 7370,
      "aNppNpp1C": 7371,
      "Meaning": 7372,
      "946": 7373,
      "var_528": 7374,
      "4221": 7375,
      "44A0": 7376,
      "44D7": 7377,
      "2D2B": 7378,
      "16Eh": 7379,
      "3D3D": 7380,
      "aMo": 7381,
      "aLf": 7382,
      "_rec_fex_elem": 7383,
      "aOption": 7384,
      "_rec_field_name_equal_p": 7385,
      "316": 7386,
      "C20": 7387,
      "EB0": 7388,
      "mat": 7389,
      "ton": 7390,
      "var_8F0": 7391,
      "andom": 7392,
      "45AC": 7393,
      "ECB": 7394,
      "ingS": 7395,
      "var_1120": 7396,
      "412277": 7397,
      "aStd": 7398,
      "6DF6D8": 7399,
      "aAttemptToUse": 7400,
      "5FD": 7401,
      "737": 7402,
      "var_720": 7403,
      "45E0": 7404,
      "4FCE": 7405,
      "124h": 7406,
      "_mk": 7407,
      "7D4": 7408,
      "7B3": 7409,
      "aRet": 7410,
      "61AB20": 7411,
      "6C66C0": 7412,
      "21128h": 7413,
      "631710": 7414,
      "412290": 7415,
      "618C60": 7416,
      "6A5FF0": 7417,
      "92C": 7418,
      "DC0": 7419,
      "var_27C": 7420,
      "var_2A4": 7421,
      "var_8E0": 7422,
      "42DD": 7423,
      "429E": 7424,
      "var_970": 7425,
      "4498": 7426,
      "2D21": 7427,
      "DB9": 7428,
      "BB9": 7429,
      "plus": 7430,
      "EBE": 7431,
      "__glp_mpl_t": 7432,
      "aDefault": 7433,
      "270Fh": 7434,
      "aFailure_18": 7435,
      "__glp_sv": 7436,
      "318h": 7437,
      "64D": 7438,
      "1090": 7439,
      "rent": 7440,
      "g_0": 7441,
      "44CE": 7442,
      "22x": 7443,
      "EC4": 7444,
      "assertion": 7445,
      "ED7": 7446,
      "6A860C": 7447,
      "6102F0": 7448,
      "6C6B88": 7449,
      "dirname": 7450,
      "Track": 7451,
      "tilarge": 7452,
      "3F9": 7453,
      "42B8": 7454,
      "42BD": 7455,
      "2ED8": 7456,
      "63E6": 7457,
      "7F3": 7458,
      "scii": 7459,
      "aGlpGet": 7460,
      "414A30": 7461,
      "55555555": 7462,
      "514": 7463,
      "F18": 7464,
      "cxa_": 7465,
      "alnum": 7466,
      "42FA": 7467,
      "288h": 7468,
      "639C": 7469,
      "4A7D": 7470,
      "___cxa_": 7471,
      "DC6": 7472,
      "DBA": 7473,
      "_empty": 7474,
      "atexit": 7475,
      "4308": 7476,
      "_iswalnum": 7477,
      "aDuplic": 7478,
      "___cxa_atexit": 7479,
      "1_e": 7480,
      "5FC": 7481,
      "7F8": 7482,
      "EX": 7483,
      "_err_e": 7484,
      "cdf": 7485,
      "eta_": 7486,
      "4231": 7487,
      "_fin": 7488,
      "43CE": 7489,
      "var_968": 7490,
      "6020": 7491,
      "_gsl_cdf": 7492,
      "sian": 7493,
      "47C8": 7494,
      "2F73": 7495,
      "7E6": 7496,
      "DDA": 7497,
      "aSimplexSpxprim": 7498,
      "aSimplexSpxlpC": 7499,
      "_libunistring_uc_is": 7500,
      "Dim0": 7501,
      "aussian": 7502,
      "_gsl_interp_accel_find": 7503,
      "Meaningless": 7504,
      "655": 7505,
      "430A": 7506,
      "4510": 7507,
      "45CA": 7508,
      "29Ch": 7509,
      "9CD": 7510,
      "9EE": 7511,
      "aDrive": 7512,
      "EEB": 7513,
      "aOb": 7514,
      "aVect": 7515,
      "aCannotOpen": 7516,
      "orsMustHa": 7517,
      "aHomeDongkwanDa_0": 7518,
      "aVectorsMustHa": 7519,
      "41F1": 7520,
      "locret_405": 7521,
      "467A": 7522,
      "our": 7523,
      "7D5": 7524,
      "796": 7525,
      "SSCanT": 7526,
      "aSDSSCanT": 7527,
      "CC8": 7528,
      "yb": 7529,
      "700h": 7530,
      "17BC": 7531,
      "7D7": 7532,
      "448C": 7533,
      "411CEF": 7534,
      "impC": 7535,
      "var_EA": 7536,
      "107h": 7537,
      "43D8": 7538,
      "4319": 7539,
      "4359": 7540,
      "2010h": 7541,
      "4760": 7542,
      "BDE": 7543,
      "EDA": 7544,
      "aCannotSpecify": 7545,
      "off_503B": 7546,
      "DoesNot": 7547,
      "Array": 7548,
      "ved": 7549,
      "4350": 7550,
      "var_940": 7551,
      "atty": 7552,
      "2EA8": 7553,
      "4EB5": 7554,
      "DD7": 7555,
      "97F": 7556,
      "aSS_1": 7557,
      "1001h": 7558,
      "aQrC": 7559,
      "_isatty": 7560,
      "right": 7561,
      "aUtf8": 7562,
      "4528": 7563,
      "45BD": 7564,
      "0A5h": 7565,
      "AA6": 7566,
      "4458": 7567,
      "210D4h": 7568,
      "9F8": 7569,
      "locret_412": 7570,
      "EA1": 7571,
      "_io": 7572,
      "_rpl_fprintf": 7573,
      "670DC8": 7574,
      "aPrint": 7575,
      "lexSc": 7576,
      "36A": 7577,
      "66E": 7578,
      "B70": 7579,
      "NN": 7580,
      "let": 7581,
      "429D": 7582,
      "42CE": 7583,
      "4300": 7584,
      "2F91": 7585,
      "6920": 7586,
      "rl_executing_": 7587,
      "7B1": 7588,
      "735": 7589,
      "D94": 7590,
      "6709C8": 7591,
      "AndX": 7592,
      "Argument": 7593,
      "358": 7594,
      "950h": 7595,
      "Graph": 7596,
      "f1C": 7597,
      "sedir": 7598,
      "vfprintf": 7599,
      "var_2AC": 7600,
      "var_444": 7601,
      "setjmp": 7602,
      "4316": 7603,
      "436D": 7604,
      "43F7": 7605,
      "4546": 7606,
      "44DC": 7607,
      "44FB": 7608,
      "2F9B": 7609,
      "676E69": 7610,
      "DBF": 7611,
      "BB3": 7612,
      "_gsl_linalg": 7613,
      "_gsl_linalg_L": 7614,
      "_prev": 7615,
      "aLine": 7616,
      "_undo_group": 7617,
      "_closedir": 7618,
      "_ceil": 7619,
      "338h": 7620,
      "6FD": 7621,
      "Drive": 7622,
      "var_8C8": 7623,
      "var_920": 7624,
      "44FD": 7625,
      "2D00": 7626,
      "off_53": 7627,
      "3B0h": 7628,
      "9C7": 7629,
      "9A5": 7630,
      "9B1": 7631,
      "7BB": 7632,
      "aEigen": 7633,
      "616AC0": 7634,
      "541": 7635,
      "4348": 7636,
      "0FFFFFFFF80000000h": 7637,
      "2FB3": 7638,
      "6D20": 7639,
      "5C5": 7640,
      "14Ch": 7641,
      "9DF": 7642,
      "EB7": 7643,
      "6189C0": 7644,
      "629420": 7645,
      "625540": 7646,
      "aErrorWh": 7647,
      "21130h": 7648,
      "249249": 7649,
      "42C0": 7650,
      "105h": 7651,
      "4365": 7652,
      "locret_406": 7653,
      "2DE9": 7654,
      "4BD9": 7655,
      "16FCh": 7656,
      "6DE0": 7657,
      "6C8A": 7658,
      "975": 7659,
      "var_AF0": 7660,
      "aCouldnT": 7661,
      "aCholeskyC": 7662,
      "7E8": 7663,
      "91h": 7664,
      "20C2": 7665,
      "4530": 7666,
      "2FB7": 7667,
      "17BB": 7668,
      "21170h": 7669,
      "7D6": 7670,
      "place": 7671,
      "lice": 7672,
      "713398": 7673,
      "CCCCCCCC": 7674,
      "627": 7675,
      "CS": 7676,
      "CC0": 7677,
      "E90": 7678,
      "_version": 7679,
      "cf": 7680,
      "42DB": 7681,
      "42BA": 7682,
      "452A": 7683,
      "_bu": 7684,
      "EA6": 7685,
      "EDF": 7686,
      "32D": 7687,
      "359": 7688,
      "D50": 7689,
      "42BE": 7690,
      "4310": 7691,
      "_source": 7692,
      "444C": 7693,
      "44BB": 7694,
      "4616": 7695,
      "6C6BB8": 7696,
      "ZaZ0": 7697,
      "3F7": 7698,
      "46C8": 7699,
      "Mis": 7700,
      "UU": 7701,
      "45B8": 7702,
      "44FF": 7703,
      "9B9": 7704,
      "libunistr": 7705,
      "348h": 7706,
      "She": 7707,
      "43E0": 7708,
      "43AC": 7709,
      "_sc": 7710,
      "45CC": 7711,
      "50CA": 7712,
      "__setjmp": 7713,
      "2D53": 7714,
      "6A5A": 7715,
      "EC6": 7716,
      "7AF": 7717,
      "E9F": 7718,
      "A1F0": 7719,
      "628A": 7720,
      "84": 7721,
      "gfC": 7722,
      "ume": 7723,
      "_gsl_movstat": 7724,
      "4BCB": 7725,
      "2553": 7726,
      "aSg": 7727,
      "psC": 7728,
      "9A7": 7729,
      "EE9": 7730,
      "isnan": 7731,
      "_deriv": 7732,
      "_gsl_sf_bessel_Y": 7733,
      "Dimension": 7734,
      "fined": 7735,
      "_glp_get_row": 7736,
      "aBesselK": 7737,
      "aApm": 7738,
      "_osip_list_get": 7739,
      "aBflibSgfC": 7740,
      "aMinisat": 7741,
      "aSyntaxErrorIn": 7742,
      "_osip_message_free": 7743,
      "ConfigFi": 7744,
      "aAccessConfigFi": 7745,
      "_usleep": 7746,
      "CylA": 7747,
      "var_790": 7748,
      "10Fh": 7749,
      "2D5F": 7750,
      "arg_38": 7751,
      "2F92": 7752,
      "CE4": 7753,
      "CE9": 7754,
      "CCB": 7755,
      "_gsl_blas_z": 7756,
      "6199E0": 7757,
      "679A00": 7758,
      "aDebug": 7759,
      "off_61E8": 7760,
      "aPartitionCylA": 7761,
      "E00": 7762,
      "alo": 7763,
      "var_824": 7764,
      "var_284": 7765,
      "4360": 7766,
      "4E38": 7767,
      "EED": 7768,
      "775": 7769,
      "72D": 7770,
      "798": 7771,
      "900": 7772,
      "4399": 7773,
      "var_9D": 7774,
      "0A2h": 7775,
      "7B6": 7776,
      "EAB": 7777,
      "fdivrp": 7778,
      "36C": 7779,
      "66B": 7780,
      "4513": 7781,
      "444D": 7782,
      "4A7B": 7783,
      "6AA1": 7784,
      "0D4h": 7785,
      "_bnds": 7786,
      "7E5": 7787,
      "331": 7788,
      "DB2": 7789,
      "BAE": 7790,
      "ABE": 7791,
      "off_617": 7792,
      "tm_": 7793,
      "35C": 7794,
      "3FB": 7795,
      "ose": 7796,
      "rs_ptr": 7797,
      "var_62": 7798,
      "var_738": 7799,
      "4550": 7800,
      "44ED": 7801,
      "2D22": 7802,
      "4698": 7803,
      "9A1": 7804,
      "9B2": 7805,
      "BBB": 7806,
      "792": 7807,
      "Missing": 7808,
      "_entry": 7809,
      "_jit": 7810,
      "chuz_0": 7811,
      "4212": 7812,
      "436E": 7813,
      "449E": 7814,
      "2D1E": 7815,
      "2DE5": 7816,
      "0C7h": 7817,
      "ECF": 7818,
      "795": 7819,
      "aLower": 7820,
      "aTry": 7821,
      "115h": 7822,
      "Tree": 7823,
      "ash": 7824,
      "su": 7825,
      "var_8D8": 7826,
      "var_814": 7827,
      "var_670": 7828,
      "var_7B": 7829,
      "25C0": 7830,
      "puts": 7831,
      "977": 7832,
      "off_4B5A": 7833,
      "_ele": 7834,
      "46CB": 7835,
      "4418": 7836,
      "2079": 7837,
      "A00h": 7838,
      "4BB9": 7839,
      "4749": 7840,
      "4EE2": 7841,
      "6E34": 7842,
      "DB5": 7843,
      "731": 7844,
      "aOpt": 7845,
      "aVoid": 7846,
      "aXAndX": 7847,
      "17B88h": 7848,
      "Require": 7849,
      "61ED": 7850,
      "8Ah": 7851,
      "A68": 7852,
      "Er": 7853,
      "fseterr": 7854,
      "redi": 7855,
      "var_43": 7856,
      "4297": 7857,
      "_feof": 7858,
      "4388": 7859,
      "unc": 7860,
      "textdomain": 7861,
      "ill_": 7862,
      "9D2": 7863,
      "_ell": 7864,
      "_gsl_sf_ell": 7865,
      "unicase": 7866,
      "_gsl_blas_drot": 7867,
      "of_line": 7868,
      "rpl_vfprintf": 7869,
      "_check": 7870,
      "670958": 7871,
      "_gsl_matrix_subrow": 7872,
      "spatch": 7873,
      "679A60": 7874,
      "_glp_set_": 7875,
      "6798F0": 7876,
      "_gsl_sort_u": 7877,
      "_encoding": 7878,
      "67A610": 7879,
      "_glp_set_row_bnds": 7880,
      "aSIsMeaningless": 7881,
      "aGammaC": 7882,
      "tegration": 7883,
      "_bindtextdomain": 7884,
      "options": 7885,
      "redisplay": 7886,
      "_gsl_sf_ellint_": 7887,
      "440A": 7888,
      "561": 7889,
      "Fr": 7890,
      "4315": 7891,
      "aSu": 7892,
      "9A2": 7893,
      "aGb": 7894,
      "aEl": 7895,
      "orrect": 7896,
      "aSNot": 7897,
      "9C5": 7898,
      "9CF": 7899,
      "9E2": 7900,
      "_update": 7901,
      "F36": 7902,
      "1E0C": 7903,
      "61B980": 7904,
      "86A448": 7905,
      "aEndOf": 7906,
      "Print": 7907,
      "891AB8": 7908,
      "867DE8": 7909,
      "869DE8": 7910,
      "mutex": 7911,
      "10Bh": 7912,
      "433A": 7913,
      "451F": 7914,
      "461A": 7915,
      "2EF8": 7916,
      "BB1": 7917,
      "aAs": 7918,
      "E96": 7919,
      "46B840": 7920,
      "46B8C0": 7921,
      "_param": 7922,
      "C58": 7923,
      "a12": 7924,
      "rub": 7925,
      "upper": 7926,
      "yle": 7927,
      "mmen": 7928,
      "var_988": 7929,
      "4FC5": 7930,
      "aSpi": 7931,
      "EEA": 7932,
      "outbuf": 7933,
      "EDE": 7934,
      "aReport": 7935,
      "DE0": 7936,
      "fn": 7937,
      "434E": 7938,
      "437B": 7939,
      "459E": 7940,
      "469F": 7941,
      "131F": 7942,
      "0AEh": 7943,
      "6A20": 7944,
      "0E10h": 7945,
      "Token": 7946,
      "BDA": 7947,
      "7F1": 7948,
      "ution": 7949,
      "46B8A0": 7950,
      "46B8B0": 7951,
      "D00": 7952,
      "4154": 7953,
      "var_7B8": 7954,
      "var_768": 7955,
      "44E8": 7956,
      "2F68": 7957,
      "DD9": 7958,
      "aClose": 7959,
      "690F90": 7960,
      "_nlinear_": 7961,
      "34DF": 7962,
      "_pthread_mutex_unlock": 7963,
      "6D1CB8": 7964,
      "tilarge_nlinear_": 7965,
      "357": 7966,
      "726": 7967,
      "var_17": 7968,
      "var_56": 7969,
      "2F76": 7970,
      "aMmc": 7971,
      "6440": 7972,
      "EEE": 7973,
      "ED5": 7974,
      "108E": 7975,
      "6165E0": 7976,
      "Files": 7977,
      "667": 7978,
      "9B8": 7979,
      "gid": 7980,
      "var_1F": 7981,
      "var_600": 7982,
      "rel": 7983,
      "554F90": 7984,
      "9C1": 7985,
      "976": 7986,
      "9AF": 7987,
      "EEF": 7988,
      "0FFFC00": 7989,
      "_delete": 7990,
      "aSOptionRequire": 7991,
      "0FFFC00FFh": 7992,
      "Part": 7993,
      "_word": 7994,
      "t_f": 7995,
      "var_E1": 7996,
      "byname": 7997,
      "_fseek": 7998,
      "inorm": 7999,
      "4BD8": 8000,
      "_free_atom": 8001,
      "off_4A": 8002,
      "c_to": 8003,
      "aSort": 8004,
      "_mh": 8005,
      "serC": 8006,
      "7B5": 8007,
      "riter": 8008,
      "BAB": 8009,
      "_gsl_matrix_memcpy": 8010,
      "BD3": 8011,
      "_internal": 8012,
      "Com": 8013,
      "gsl_movstat": 8014,
      "670A70": 8015,
      "_u8_cpy": 8016,
      "8F1B": 8017,
      "6DF6D0": 8018,
      "_gsl_multifit_f": 8019,
      "_raw_fwrite": 8020,
      "_raw_fread": 8021,
      "_gsl_sf_bessel_Jn": 8022,
      "_quot": 8023,
      "aSpioC": 8024,
      "c_tolower": 8025,
      "gsl_movstat_accum": 8026,
      "02": 8027,
      "F00": 8028,
      "Multi": 8029,
      "431F": 8030,
      "44EC": 8031,
      "1361": 8032,
      "4723": 8033,
      "6F6E": 8034,
      "var_19A8": 8035,
      "2000": 8036,
      "GnuO": 8037,
      "8000": 8038,
      "_cmp": 8039,
      "0DAh": 8040,
      "F6h": 8041,
      "_rec_mset_append": 8042,
      "BCDCh": 8043,
      "owner": 8044,
      "E38": 8045,
      "ee": 8046,
      "var_7B0": 8047,
      "4525": 8048,
      "451E": 8049,
      "50D2": 8050,
      "44BC": 8051,
      "2E2E": 8052,
      "0EEh": 8053,
      "aGawk": 8054,
      "_rl_e": 8055,
      "off_61E9": 8056,
      "Rec": 8057,
      "6A9C34": 8058,
      "52C522": 8059,
      "aProb": 8060,
      "8F1BBCDCh": 8061,
      "642": 8062,
      "Spar": 8063,
      "a3": 8064,
      "427F": 8065,
      "435C": 8066,
      "43DC": 8067,
      "437C": 8068,
      "454D": 8069,
      "44E7": 8070,
      "1357": 8071,
      "2552": 8072,
      "53617A": 8073,
      "_map": 8074,
      "asc_4B623": 8075,
      "BDF": 8076,
      "tile": 8077,
      "BE2": 8078,
      "ready": 8079,
      "558400": 8080,
      "558580": 8081,
      "558600": 8082,
      "2D2D2D2Dh": 8083,
      "453F5B": 8084,
      "imum": 8085,
      "53583E": 8086,
      "5360B3": 8087,
      "535D31": 8088,
      "ett": 8089,
      "var_6B0": 8090,
      "var_72": 8091,
      "453C": 8092,
      "err_m": 8093,
      "461D": 8094,
      "47A8": 8095,
      "2FA5": 8096,
      "25B4": 8097,
      "0DBh": 8098,
      "40B670": 8099,
      "616E": 8100,
      "9Eh": 8101,
      "BBE": 8102,
      "aTree": 8103,
      "713B64": 8104,
      "aFatal_": 8105,
      "453F1C": 8106,
      "aParse": 8107,
      "xmmword_1149C0": 8108,
      "xmmword_115030": 8109,
      "xmmword_115780": 8110,
      "err_msg": 8111,
      "36B": 8112,
      "665": 8113,
      "820h": 8114,
      "var_778": 8115,
      "inal": 8116,
      "4367": 8117,
      "43BC": 8118,
      "4750": 8119,
      "DD5": 8120,
      "DBE": 8121,
      "D10": 8122,
      "434D": 8123,
      "4527": 8124,
      "46A1": 8125,
      "off_46": 8126,
      "EB3": 8127,
      "_tputs": 8128,
      "MatrixMustBe": 8129,
      "xmmword_115210": 8130,
      "679CF8": 8131,
      "ark": 8132,
      "400F": 8133,
      "433D": 8134,
      "6063": 8135,
      "7D1": 8136,
      "ED9": 8137,
      "EB6": 8138,
      "7F5": 8139,
      "ustC": 8140,
      "Diff": 8141,
      "height": 8142,
      "453ECF": 8143,
      "_select": 8144,
      "114B20": 8145,
      "878h": 8146,
      "8F0h": 8147,
      "Bug": 8148,
      "Date": 8149,
      "amp": 8150,
      "a_fin": 8151,
      "imi": 8152,
      "iconv": 8153,
      "poly": 8154,
      "cxa_fin": 8155,
      "tep": 8156,
      "_fork": 8157,
      "45458A": 8158,
      "_gsl_h": 8159,
      "__cxa_fin": 8160,
      "apply": 8161,
      "4F7E": 8162,
      "aMult": 8163,
      "lineC": 8164,
      "EE5": 8165,
      "terr": 8166,
      "_setenv": 8167,
      "AD9": 8168,
      "_cas": 8169,
      "aVersion": 8170,
      "off_62EC": 8171,
      "aHermite": 8172,
      "115190": 8173,
      "_libiconv": 8174,
      "_gsl_stats_int": 8175,
      "_gsl_stats_short": 8176,
      "_gsl_stats_char_": 8177,
      "61F300": 8178,
      "_gsl_sf_bessel_K": 8179,
      "_u16_cpy": 8180,
      "453EB9": 8181,
      "_gsl_complex_mul": 8182,
      "_gsl_stats_ushort": 8183,
      "_gsl_stats_uchar_": 8184,
      "_prefix": 8185,
      "1158E0": 8186,
      "program_invocation_name": 8187,
      "_gsl_linalg_householder_h": 8188,
      "_gsl_permute_vector": 8189,
      "aEvalC": 8190,
      "aDraftGlpssx01C": 8191,
      "aMinisatMinisat": 8192,
      "_gsl_multifit_fdf": 8193,
      "__cxa_finalize": 8194,
      "aMultil": 8195,
      "31F": 8196,
      "918": 8197,
      "ux": 8198,
      "var_82C": 8199,
      "_fields": 8200,
      "476A": 8201,
      "6863": 8202,
      "0D7FFh": 8203,
      "0FFFFFFF8h": 8204,
      "CEE": 8205,
      "aBin": 8206,
      "115370": 8207,
      "_wait": 8208,
      "_ngettext": 8209,
      "319": 8210,
      "C70": 8211,
      "var_85": 8212,
      "var_6A0": 8213,
      "43F0": 8214,
      "439E": 8215,
      "44DA": 8216,
      "4730": 8217,
      "7A2": 8218,
      "aBut": 8219,
      "6186CC": 8220,
      "group": 8221,
      "_rows": 8222,
      "Unknown": 8223,
      "___isoc99_fscanf": 8224,
      "6C6538": 8225,
      "2D2900": 8226,
      "aErrorWhen": 8227,
      "353": 8228,
      "85h": 8229,
      "Will": 8230,
      "451D": 8231,
      "2D0A80": 8232,
      "_record": 8233,
      "aMip": 8234,
      "llo": 8235,
      "436C": 8236,
      "43B7": 8237,
      "452D": 8238,
      "locret_438": 8239,
      "417000": 8240,
      "42DE": 8241,
      "aGener": 8242,
      "777": 8243,
      "EB2": 8244,
      "936": 8245,
      "_db": 8246,
      "2D1FB0": 8247,
      "Only": 8248,
      "2C6200": 8249,
      "35E": 8250,
      "5FB": 8251,
      "970": 8252,
      "var_10A8": 8253,
      "var_668": 8254,
      "locret_403": 8255,
      "44DD": 8256,
      "aMod": 8257,
      "BBD": 8258,
      "7F6": 8259,
      "_sinh": 8260,
      "_keymap_ptr": 8261,
      "Calle": 8262,
      "79B": 8263,
      "4469": 8264,
      "off_608": 8265,
      "174h": 8266,
      "6170": 8267,
      "0F5h": 8268,
      "BAF": 8269,
      "EB5": 8270,
      "61A6BC": 8271,
      "688450": 8272,
      "asc_41C210": 8273,
      "_getopt_internal": 8274,
      "5F9": 8275,
      "AF0": 8276,
      "Non": 8277,
      "hase": 8278,
      "altime": 8279,
      "var_10E0": 8280,
      "4273": 8281,
      "42CB": 8282,
      "erase": 8283,
      "var_918": 8284,
      "471D": 8285,
      "3A8h": 8286,
      "62Ch": 8287,
      "42017A": 8288,
      "CA7": 8289,
      "ED3": 8290,
      "abl": 8291,
      "_strsp": 8292,
      "_abs": 8293,
      "off_61EA": 8294,
      "Exp": 8295,
      "363": 8296,
      "440E": 8297,
      "EA8": 8298,
      "iet": 8299,
      "xattr": 8300,
      "416C80": 8301,
      "var_5E8": 8302,
      "437D": 8303,
      "45F8": 8304,
      "47A0": 8305,
      "6896": 8306,
      "aAf": 8307,
      "off_4FFB": 8308,
      "_syntax": 8309,
      "aMatrixSizesAre_0": 8310,
      "madVector": 8311,
      "aXAndXmadVector": 8312,
      "aProblem": 8313,
      "6FE": 8314,
      "Found": 8315,
      "Perm": 8316,
      "Warn": 8317,
      "4328": 8318,
      "430E": 8319,
      "Check": 8320,
      "combin": 8321,
      "4497": 8322,
      "134h": 8323,
      "473C": 8324,
      "diagonal": 8325,
      "ctomb": 8326,
      "antile": 8327,
      "0C6h": 8328,
      "9B6": 8329,
      "EE2": 8330,
      "BAD": 8331,
      "BD2": 8332,
      "7F2": 8333,
      "_uctomb": 8334,
      "rob": 8335,
      "_vs": 8336,
      "aFileS": 8337,
      "aSimplexSpxprob": 8338,
      "EndO": 8339,
      "_osip_mutex_lock": 8340,
      "_gsl_spmatrix": 8341,
      "6C6380": 8342,
      "_rl_output_": 8343,
      "_ioctl": 8344,
      "35B": 8345,
      "FlexSc": 8346,
      "lle": 8347,
      "42108": 8348,
      "locret_21": 8349,
      "446D": 8350,
      "2B70": 8351,
      "6120": 8352,
      "ant": 8353,
      "DB6": 8354,
      "42DF": 8355,
      "aAd": 8356,
      "417040": 8357,
      "417050": 8358,
      "679950": 8359,
      "GnuOrg": 8360,
      "42EC": 8361,
      "6C0h": 8362,
      "0FFFFFFFF80000001h": 8363,
      "2EB8": 8364,
      "4FC6": 8365,
      "_ma": 8366,
      "616B": 8367,
      "7B2": 8368,
      "BA9": 8369,
      "EAE": 8370,
      "776": 8371,
      "_get_rset": 8372,
      "__glp_sp": 8373,
      "_rec_db_get_rset": 8374,
      "__glp_dmp_free_atom": 8375,
      "920h": 8376,
      "Block": 8377,
      "_I": 8378,
      "4252": 8379,
      "45A3": 8380,
      "_localtime": 8381,
      "aMathieu": 8382,
      "DD6": 8383,
      "CD2": 8384,
      "41F4FE": 8385,
      "4459": 8386,
      "478E": 8387,
      "616AA0": 8388,
      "NeedClo": 8389,
      "aButWill": 8390,
      "aButWillNeedClo": 8391,
      "729": 8392,
      "ers": 8393,
      "451B": 8394,
      "453A": 8395,
      "453B": 8396,
      "45DB": 8397,
      "locret_55": 8398,
      "4860": 8399,
      "ebug": 8400,
      "1BEh": 8401,
      "22d": 8402,
      "DB3": 8403,
      "DBh": 8404,
      "CC1": 8405,
      "736": 8406,
      "aWh": 8407,
      "ign": 8408,
      "tv_use": 8409,
      "String": 8410,
      "_towupper": 8411,
      "453540": 8412,
      "mment_": 8413,
      "tv_usec": 8414,
      "0FB": 8415,
      "1p": 8416,
      "5FA": 8417,
      "D_0": 8418,
      "var_F9": 8419,
      "44F4": 8420,
      "_getpid": 8421,
      "2B8h": 8422,
      "63B2": 8423,
      "4FC7": 8424,
      "65746": 8425,
      "6F63": 8426,
      "9B3": 8427,
      "420173": 8428,
      "660234": 8429,
      "ADE": 8430,
      "cmovns": 8431,
      "_desc": 8432,
      "_u32_cpy": 8433,
      "6643A4": 8434,
      "6716B0": 8435,
      "67A5D8": 8436,
      "ettle": 8437,
      "960": 8438,
      "F28": 8439,
      "F48": 8440,
      "irt": 8441,
      "var_740": 8442,
      "432C": 8443,
      "45D8": 8444,
      "4558": 8445,
      "4533": 8446,
      "45BB": 8447,
      "6C5E": 8448,
      "2E77": 8449,
      "1CFD": 8450,
      "0EDh": 8451,
      "Info": 8452,
      "9A3": 8453,
      "428C": 8454,
      "6A32C0": 8455,
      "C60": 8456,
      "Disc": 8457,
      "439D": 8458,
      "2F2C": 8459,
      "setnl": 8460,
      "aAscii": 8461,
      "aExt": 8462,
      "aFailedToAlloca_92": 8463,
      "rpl_re": 8464,
      "gnor": 8465,
      "4200E7": 8466,
      "36E": 8467,
      "440B": 8468,
      "ny": 8469,
      "4134": 8470,
      "FFFFFFFFFFFFFh": 8471,
      "2ED0": 8472,
      "676E": 8473,
      "9AF0": 8474,
      "42016E": 8475,
      "AEF": 8476,
      "aEcho": 8477,
      "428D": 8478,
      "Oper": 8479,
      "IsAmb": 8480,
      "538h": 8481,
      "5FE": 8482,
      "80A4h": 8483,
      "943": 8484,
      "writer": 8485,
      "_given": 8486,
      "inbuf": 8487,
      "431B": 8488,
      "433E": 8489,
      "45CE": 8490,
      "4BED": 8491,
      "2E95": 8492,
      "0AAAAAAAAA": 8493,
      "4AAC": 8494,
      "error_string": 8495,
      "aFil": 8496,
      "2650": 8497,
      "DDef": 8498,
      "peed": 8499,
      "EA5": 8500,
      "_uri": 8501,
      "ing_class": 8502,
      "rptC": 8503,
      "0FF0000h": 8504,
      "_osip_uri": 8505,
      "character": 8506,
      "129A": 8507,
      "_symm": 8508,
      "aStart": 8509,
      "amma_": 8510,
      "aQrptC": 8511,
      "_charset": 8512,
      "_gsl_sf_lngamma_e": 8513,
      "_lt__error_string": 8514,
      "2F6A30": 8515,
      "_gsl_matrix_complex_get": 8516,
      "_textdomain": 8517,
      "_gsl_vector_complex_set": 8518,
      "aUnexpectedEndO": 8519,
      "_gsl_linalg_given": 8520,
      "_gsl_linalg_LU": 8521,
      "combining_class": 8522,
      "_gsl_linalg_givens": 8523,
      "Boot": 8524,
      "F98": 8525,
      "day": 8526,
      "gen": 8527,
      "4114": 8528,
      "45E8": 8529,
      "46B5": 8530,
      "_get_field": 8531,
      "2EEF": 8532,
      "0BEh": 8533,
      "9A6": 8534,
      "DAF": 8535,
      "lockfile": 8536,
      "off_61E": 8537,
      "aReal": 8538,
      "9808": 8539,
      "4F80": 8540,
      "aCopyright": 8541,
      "A8h": 8542,
      "var_6B": 8543,
      "4553": 8544,
      "var_608": 8545,
      "4BB8": 8546,
      "63A7": 8547,
      "aFscanf": 8548,
      "sert": 8549,
      "7D2": 8550,
      "CCA": 8551,
      "aFailure_8": 8552,
      "aAppend": 8553,
      "aFscanfFailed": 8554,
      "669": 8555,
      "var_43C": 8556,
      "42CD": 8557,
      "4529": 8558,
      "60A3": 8559,
      "Chang": 8560,
      "447B": 8561,
      "44E9": 8562,
      "654h": 8563,
      "aMedi": 8564,
      "aCannotCreate": 8565,
      "31A": 8566,
      "Ali": 8567,
      "nmatch": 8568,
      "wh": 8569,
      "435B": 8570,
      "452B": 8571,
      "6C6C0": 8572,
      "44CD": 8573,
      "4D38": 8574,
      "4F7D": 8575,
      "0D9h": 8576,
      "_code": 8577,
      "DA9": 8578,
      "616510": 8579,
      "61B1B0": 8580,
      "a1I": 8581,
      "62B880": 8582,
      "670AD8": 8583,
      "631770": 8584,
      "6716D8": 8585,
      "aMatricesMustHa_0": 8586,
      "3FFFFFFFFFFFFFFFh": 8587,
      "9D0": 8588,
      "var_538": 8589,
      "4325": 8590,
      "4369": 8591,
      "4523": 8592,
      "locret_15": 8593,
      "locret_422": 8594,
      "4499": 8595,
      "4E3E": 8596,
      "6A9E": 8597,
      "_rename": 8598,
      "BBA": 8599,
      "BA6": 8600,
      "17B90h": 8601,
      "aLog": 8602,
      "5AA": 8603,
      "D40": 8604,
      "Format": 8605,
      "WS": 8606,
      "cflag": 8607,
      "var_27": 8608,
      "var_1018": 8609,
      "var_750": 8610,
      "45A8": 8611,
      "456C": 8612,
      "4566": 8613,
      "25A3": 8614,
      "0CEh": 8615,
      "BE3": 8616,
      "IsEmpty": 8617,
      "6709B8": 8618,
      "Next": 8619,
      "aSOptionS": 8620,
      "aSOptionWS": 8621,
      "solverC": 8622,
      "43CA90": 8623,
      "BD0": 8624,
      "ced": 8625,
      "var_1078": 8626,
      "1010h": 8627,
      "4333": 8628,
      "_base": 8629,
      "BA1": 8630,
      "ABF": 8631,
      "7C8": 8632,
      "838h": 8633,
      "87h": 8634,
      "CE8": 8635,
      "EC0": 8636,
      "436B": 8637,
      "44F0": 8638,
      "4697": 8639,
      "2F8h": 8640,
      "264h": 8641,
      "aDriver": 8642,
      "uto": 8643,
      "aUpdate": 8644,
      "Argv": 8645,
      "aMatrixDimensio_12": 8646,
      "_normalize": 8647,
      "aIndexOutOfRang_3": 8648,
      "aVectorsMustHav_0": 8649,
      "KDblMax": 8650,
      "QQ": 8651,
      "Zero": 8652,
      "_id": 8653,
      "_timer": 8654,
      "sq": 8655,
      "42AE": 8656,
      "var_950": 8657,
      "locret_420": 8658,
      "44F9": 8659,
      "diff": 8660,
      "___xstat": 8661,
      "0D2h": 8662,
      "_bin": 8663,
      "_gsl_matrix_row": 8664,
      "EA2": 8665,
      "aEll": 8666,
      "438B": 8667,
      "aHyb": 8668,
      "_log1p": 8669,
      "_get_byname": 8670,
      "aProp": 8671,
      "_gsl_linalg_householder_mh": 8672,
      "_uc_combining_class": 8673,
      "aFieldC": 8674,
      "_param_get_byname": 8675,
      "_osip_uri_param_get_byname": 8676,
      "33C": 8677,
      "AD0": 8678,
      "Bound": 8679,
      "C68": 8680,
      "F58": 8681,
      "var_890": 8682,
      "42E9": 8683,
      "43FF": 8684,
      "4317": 8685,
      "43DD": 8686,
      "4447": 8687,
      "2E48": 8688,
      "2FA3": 8689,
      "4920": 8690,
      "divss": 8691,
      "aSInvalid": 8692,
      "114D": 8693,
      "BD6": 8694,
      "aNull": 8695,
      "6E0048": 8696,
      "aNone": 8697,
      "6E6143h": 8698,
      "32C": 8699,
      "4407": 8700,
      "d5": 8701,
      "tain": 8702,
      "load": 8703,
      "4329": 8704,
      "450C": 8705,
      "46DC": 8706,
      "25B1": 8707,
      "7A5": 8708,
      "_stp": 8709,
      "_insert_": 8710,
      "36F": 8711,
      "5FF": 8712,
      "D58": 8713,
      "nanf": 8714,
      "45B0": 8715,
      "47B0": 8716,
      "4788": 8717,
      "689A": 8718,
      "15Ch": 8719,
      "BBF": 8720,
      "BA3": 8721,
      "E91": 8722,
      "___isnanf": 8723,
      "off_6229": 8724,
      "670DB8": 8725,
      "aEnv": 8726,
      "6CD050": 8727,
      "___isnanl": 8728,
      "whence": 8729,
      "641": 8730,
      "lm": 8731,
      "var_1168": 8732,
      "var_7F": 8733,
      "437E": 8734,
      "45F7": 8735,
      "25BD": 8736,
      "off_718": 8737,
      "Inv": 8738,
      "6F20": 8739,
      "AE1": 8740,
      "aBet": 8741,
      "_domain": 8742,
      "aTz": 8743,
      "0E830FFBBh": 8744,
      "aKeyword": 8745,
      "210DCh": 8746,
      "218h": 8747,
      "339": 8748,
      "33B": 8749,
      "Eof": 8750,
      "var_304": 8751,
      "42C3": 8752,
      "435D": 8753,
      "43BB": 8754,
      "4568": 8755,
      "112h": 8756,
      "off_4B51": 8757,
      "numeri": 8758,
      "7275F4": 8759,
      "aMir": 8760,
      "aSDSSCanTAlloc": 8761,
      "numeric_": 8762,
      "3407": 8763,
      "var_83": 8764,
      "var_53": 8765,
      "42C7": 8766,
      "42C5": 8767,
      "5858": 8768,
      "off_71": 8769,
      "17B9": 8770,
      "4FCF": 8771,
      "_location_str": 8772,
      "aSSError": 8773,
      "4988": 8774,
      "41BDF7": 8775,
      "_pthread_mutex_lock": 8776,
      "aProgramError": 8777,
      "aPartitionCylAl_1": 8778,
      "441F": 8779,
      "C40": 8780,
      "6717": 8781,
      "0DC00h": 8782,
      "9E1": 8783,
      "9D1": 8784,
      "CC4": 8785,
      "BB7": 8786,
      "__glp_mpl_clean": 8787,
      "aTrue": 8788,
      "rl_display": 8789,
      "355": 8790,
      "33D": 8791,
      "430D": 8792,
      "444F": 8793,
      "4600": 8794,
      "4758": 8795,
      "2F00": 8796,
      "17BE": 8797,
      "_real": 8798,
      "0CBh": 8799,
      "931": 8800,
      "Rece": 8801,
      "453230": 8802,
      "___fxstat": 8803,
      "aDuplicate": 8804,
      "4402": 8805,
      "644": 8806,
      "ED0": 8807,
      "EC8": 8808,
      "Nu": 8809,
      "Qual": 8810,
      "SF": 8811,
      "ymp": 8812,
      "cset": 8813,
      "opterr": 8814,
      "4266": 8815,
      "432B": 8816,
      "439B": 8817,
      "43ED": 8818,
      "447E": 8819,
      "_stream": 8820,
      "_glp_time": 8821,
      "69746": 8822,
      "aRb": 8823,
      "E94": 8824,
      "_hook_ptr": 8825,
      "_gsl_stats_long_": 8826,
      "20020h": 8827,
      "1000C01h": 8828,
      "aCodC": 8829,
      "rpl_optarg": 8830,
      "aFailure_17": 8831,
      "quote_n": 8832,
      "aFirstDimension": 8833,
      "_gsl_stats_ulong_": 8834,
      "__glp_mpq_set": 8835,
      "exit_failure": 8836,
      "453220": 8837,
      "Used": 8838,
      "aSizeOfT": 8839,
      "argp_": 8840,
      "Asn": 8841,
      "_jit_": 8842,
      "quotearg_n_custom": 8843,
      "2D2D2D2D2D2D2D2Dh": 8844,
      "_context_ptr": 8845,
      "unicase_empty": 8846,
      "_glp_set_obj": 8847,
      "800020h": 8848,
      "aEllintC": 8849,
      "Quality": 8850,
      "DD8": 8851,
      "var_81C": 8852,
      "var_354": 8853,
      "var_748": 8854,
      "4313": 8855,
      "4349": 8856,
      "olume": 8857,
      "var_1180": 8858,
      "EA3": 8859,
      "AB5": 8860,
      "AB9": 8861,
      "aDraftGlpapi09C": 8862,
      "43D034": 8863,
      "43CC6E": 8864,
      "43CD4F": 8865,
      "a1JJN": 8866,
      "flt_": 8867,
      "241": 8868,
      "76A": 8869,
      "C78": 8870,
      "D70": 8871,
      "var": 8872,
      "var_8D": 8873,
      "var_7E0": 8874,
      "459D": 8875,
      "462B": 8876,
      "63AB": 8877,
      "0BFF": 8878,
      "714C": 8879,
      "aGpt": 8880,
      "ingTo": 8881,
      "ED6": 8882,
      "aTran": 8883,
      "445B": 8884,
      "43C5DE": 8885,
      "6C6520": 8886,
      "618998": 8887,
      "_search": 8888,
      "2F9090": 8889,
      "2F93C0": 8890,
      "453870": 8891,
      "ference": 8892,
      "440C": 8893,
      "66A": 8894,
      "D78": 8895,
      "mall": 8896,
      "var_364": 8897,
      "var_6C0": 8898,
      "43BA": 8899,
      "45FE": 8900,
      "2E50": 8901,
      "63A8": 8902,
      "4DC8": 8903,
      "aList": 8904,
      "newton": 8905,
      "_libunistring": 8906,
      "_pthread_mutex_destroy": 8907,
      "100000": 8908,
      "Buffer": 8909,
      "Du": 8910,
      "Pri": 8911,
      "bnds": 8912,
      "var_119": 8913,
      "var_334": 8914,
      "locret_7": 8915,
      "2E53": 8916,
      "0B5h": 8917,
      "aBlock": 8918,
      "aUpper": 8919,
      "478A": 8920,
      "var_1598": 8921,
      "4D08": 8922,
      "691540": 8923,
      "aMatrixSizeMust": 8924,
      "20746F6E6E6143h": 8925,
      "aSymbolic": 8926,
      "36D": 8927,
      "CE0": 8928,
      "Long": 8929,
      "xed": 8930,
      "var_324": 8931,
      "4578": 8932,
      "455D": 8933,
      "45BA": 8934,
      "4BF9": 8935,
      "ason": 8936,
      "CCDh": 8937,
      "445C": 8938,
      "4137F0": 8939,
      "aLoad": 8940,
      "__glp_mpl_tab": 8941,
      "__glp_sva_": 8942,
      "337": 8943,
      "34178": 8944,
      "440D": 8945,
      "oi": 8946,
      "var_2F4": 8947,
      "4569": 8948,
      "44EA": 8949,
      "139B": 8950,
      "2EAB": 8951,
      "2FB9": 8952,
      "4EC8": 8953,
      "CDE": 8954,
      "64B600": 8955,
      "679A08": 8956,
      "fnst": 8957,
      "71C": 8958,
      "F6F": 8959,
      "var_46": 8960,
      "4347": 8961,
      "45FC": 8962,
      "450D": 8963,
      "44DB": 8964,
      "2E3D": 8965,
      "2EE3": 8966,
      "634h": 8967,
      "9D5": 8968,
      "BB6": 8969,
      "aBegin": 8970,
      "ADA": 8971,
      "428E": 8972,
      "7440": 8973,
      "off_613": 8974,
      "aHfs": 8975,
      "aCannotRe": 8976,
      "128B": 8977,
      "2F7270": 8978,
      "2EA570": 8979,
      "aAttemptToUseAr": 8980,
      "_syntax_": 8981,
      "33A": 8982,
      "441D": 8983,
      "SD": 8984,
      "Was": 8985,
      "i_0": 8986,
      "4B70": 8987,
      "_match": 8988,
      "5498": 8989,
      "3083B0": 8990,
      "0B0": 8991,
      "3FA": 8992,
      "c_strcasecmp": 8993,
      "lon": 8994,
      "4232": 8995,
      "4323": 8996,
      "6C4D": 8997,
      "446E": 8998,
      "449C": 8999,
      "dispatch": 9000,
      "253D": 9001,
      "638h": 9002,
      "0FFFFFF00h": 9003,
      "BD5": 9004,
      "_rl_insert_": 9005,
      "AE7": 9006,
      "aGlpInt": 9007,
      "aApiGraph": 9008,
      "_fflush_unlocked": 9009,
      "MustBeP": 9010,
      "a1P": 9011,
      "a1QQ": 9012,
      "dfC": 9013,
      "CCCCCCDh": 9014,
      "_rl_vimv": 9015,
      "aDraftGlpapi06C": 9016,
      "Status": 9017,
      "_glp_set_col_bnds": 9018,
      "_gsl_odeiv2_control_": 9019,
      "_gnu_dev_ma": 9020,
      "10DCDh": 9021,
      "Permu": 9022,
      "aSizeOfTau": 9023,
      "_rl_insert_text": 9024,
      "aGlpIntopt": 9025,
      "aApiGraphC": 9026,
      "_rl_vimvcxt_ptr": 9027,
      "1S2S": 9028,
      "8000000h": 9029,
      "935": 9030,
      "Lib": 9031,
      "jor": 9032,
      "42BF": 9033,
      "4355": 9034,
      "43DE": 9035,
      "4599": 9036,
      "457B": 9037,
      "locret_415": 9038,
      "46AA": 9039,
      "3B8h": 9040,
      "0FFFFFF9Fh": 9041,
      "616500": 9042,
      "aMplMpl6C": 9043,
      "_aij": 9044,
      "a1S2S": 9045,
      "64F760": 9046,
      "__glp_avl_": 9047,
      "aRecutils": 9048,
      "__glp_npp_add_aij": 9049,
      "libunistring_": 9050,
      "399": 9051,
      "_obstack": 9052,
      "var_131": 9053,
      "var_37": 9054,
      "var_710": 9055,
      "42E6": 9056,
      "432A": 9057,
      "45A0": 9058,
      "4449": 9059,
      "4737": 9060,
      "6D1A": 9061,
      "var_1080": 9062,
      "CBE": 9063,
      "4B08": 9064,
      "_cols": 9065,
      "6FA": 9066,
      "940": 9067,
      "E_0": 9068,
      "F40": 9069,
      "a22x": 9070,
      "ress": 9071,
      "var_5D4": 9072,
      "var_5F4": 9073,
      "42C9": 9074,
      "4567": 9075,
      "444A": 9076,
      "1359": 9077,
      "All": 9078,
      "44F140": 9079,
      "2E8BA2E8BA": 9080,
      "34178C": 9081,
      "141h": 9082,
      "6F9": 9083,
      "1010": 9084,
      "457D": 9085,
      "449D": 9086,
      "_getline": 9087,
      "2EF0": 9088,
      "196h": 9089,
      "rl_prompt": 9090,
      "42DA": 9091,
      "off_4B35": 9092,
      "8889h": 9093,
      "Count": 9094,
      "4F08": 9095,
      "SizeA": 9096,
      "206567": 9097,
      "Log": 9098,
      "88888889h": 9099,
      "aOutputRange": 9100,
      "_acos": 9101,
      "rl_prompt_ptr": 9102,
      "aOutputRangeErr": 9103,
      "31B": 9104,
      "A50": 9105,
      "B68": 9106,
      "Gpl": 9107,
      "ple": 9108,
      "461B": 9109,
      "136B": 9110,
      "2EA3": 9111,
      "4918": 9112,
      "41B6F0": 9113,
      "EE6": 9114,
      "aPre": 9115,
      "AD3": 9116,
      "Cov": 9117,
      "4294B2": 9118,
      "aUsageS": 9119,
      "43A9F0": 9120,
      "43ADB0": 9121,
      "riptor": 9122,
      "_descriptor": 9123,
      "0C08": 9124,
      "141": 9125,
      "AZaZ0": 9126,
      "sA": 9127,
      "xrealloc": 9128,
      "42FF": 9129,
      "45F9": 9130,
      "44CF": 9131,
      "471E": 9132,
      "476B": 9133,
      "2E40": 9134,
      "4FCC": 9135,
      "5568": 9136,
      "aAZaZ": 9137,
      "__glp_mpl_append": 9138,
      "aIter": 9139,
      "Unk": 9140,
      "Load": 9141,
      "__glp_str2int": 9142,
      "aAZaZAZaZ0": 9143,
      "451A": 9144,
      "45DA": 9145,
      "4739": 9146,
      "2C68": 9147,
      "aDvd": 9148,
      "var_1140": 9149,
      "428E92": 9150,
      "cmovl": 9151,
      "43A870": 9152,
      "43A880": 9153,
      "42901C": 9154,
      "4290BC": 9155,
      "4289D8": 9156,
      "648h": 9157,
      "9BC": 9158,
      "Were": 9159,
      "ww": 9160,
      "alC": 9161,
      "var_10A": 9162,
      "42F9": 9163,
      "4279": 9164,
      "2D23": 9165,
      "4617": 9166,
      "46F7": 9167,
      "465A": 9168,
      "2FC5": 9169,
      "808": 9170,
      "AB6": 9171,
      "icient": 9172,
      "choleskyC": 9173,
      "_mat_row": 9174,
      "0_e": 9175,
      "Luf": 9176,
      "PT": 9177,
      "fgC": 9178,
      "ish": 9179,
      "nC": 9180,
      "_sort": 9181,
      "45DD": 9182,
      "sible": 9183,
      "2C95": 9184,
      "2F7E": 9185,
      "6A16": 9186,
      "aSThe": 9187,
      "40800000h": 9188,
      "_m_sd": 9189,
      "mac": 9190,
      "_rl_be": 9191,
      "CB3": 9192,
      "CDA": 9193,
      "_category": 9194,
      "aLqC": 9195,
      "_rec_write": 9196,
      "_rec_writer": 9197,
      "aMatrixRow": 9198,
      "2E80": 9199,
      "aInvalidUp": 9200,
      "aSubdiagonal": 9201,
      "_rec_mset_elem": 9202,
      "_vasnprintf": 9203,
      "aVectorAnd": 9204,
      "aVectorWould": 9205,
      "aFileI": 9206,
      "aSymm": 9207,
      "aMiscK": 9208,
      "aBflibLuf": 9209,
      "aSecondDimensio": 9210,
      "aSubmatrixDimen": 9211,
      "_gsl_stats_uint": 9212,
      "_rl_clear_": 9213,
      "_gsl_sf_hermite": 9214,
      "_status": 9215,
      "aExpC": 9216,
      "_gsl_rng_uniform_pos": 9217,
      "aLegendreSource": 9218,
      "_asymp": 9219,
      "aIntoptCfgC": 9220,
      "_rl_bind_keyseq": 9221,
      "aHdUseC": 9222,
      "aMatrixColumnSi": 9223,
      "tegration_q": 9224,
      "Bugs": 9225,
      "_gsl_multifit_fdfsolver": 9226,
      "_rl_output_character": 9227,
      "aPropSourceC": 9228,
      "aFirstDimension_1": 9229,
      "0C0800000h": 9230,
      "aMatrixRowSizeA": 9231,
      "aInvalidUplo": 9232,
      "aSubdiagonalInd": 9233,
      "aVectorAndPermu": 9234,
      "aVectorWouldExt": 9235,
      "_rl_output_character_function_ptr": 9236,
      "34F": 9237,
      "86h": 9238,
      "949": 9239,
      "D18": 9240,
      "gal": 9241,
      "v3": 9242,
      "var_2DC": 9243,
      "var_7A0": 9244,
      "430C": 9245,
      "43BD": 9246,
      "var_938": 9247,
      "46D8": 9248,
      "4623": 9249,
      "5516": 9250,
      "6220": 9251,
      "0C000h": 9252,
      "BB2": 9253,
      "ADF": 9254,
      "Std": 9255,
      "compC": 9256,
      "rchive": 9257,
      "35A": 9258,
      "5AC": 9259,
      "B50": 9260,
      "C18": 9261,
      "D7C": 9262,
      "E10": 9263,
      "var_BD": 9264,
      "var_57": 9265,
      "42F0": 9266,
      "var_960": 9267,
      "45FA": 9268,
      "455A": 9269,
      "__libc_start_main": 9270,
      "4628": 9271,
      "465E": 9272,
      "2F28": 9273,
      "4EE0": 9274,
      "aSol": 9275,
      "CE7": 9276,
      "BA5": 9277,
      "AB3": 9278,
      "0FFFF0000h": 9279,
      "Have": 9280,
      "6D2248": 9281,
      "2F8BC0": 9282,
      "_parse": 9283,
      "aBootImageAny": 9284,
      "aDebug_": 9285,
      "__glp_get_err_msg": 9286,
      "2D5648": 9287,
      "_stpcpy": 9288,
      "__libc_start_main_ptr": 9289,
      "D28": 9290,
      "Home": 9291,
      "var_2BC": 9292,
      "var_898": 9293,
      "4597": 9294,
      "4479": 9295,
      "2D4118": 9296,
      "2C9808": 9297,
      "2EC8": 9298,
      "6573": 9299,
      "AAAh": 9300,
      "CE5": 9301,
      "443A": 9302,
      "_history_ptr": 9303,
      "2D5F98": 9304,
      "66D": 9305,
      "BE8": 9306,
      "N_0": 9307,
      "cess": 9308,
      "var_30C": 9309,
      "var_628": 9310,
      "4256": 9311,
      "2D4F": 9312,
      "4770": 9313,
      "7865": 9314,
      "4F53": 9315,
      "0BDh": 9316,
      "CEA": 9317,
      "aIns": 9318,
      "EB1": 9319,
      "aNorm": 9320,
      "is_b": 9321,
      "D92": 9322,
      "445A": 9323,
      "679A68": 9324,
      "67A618": 9325,
      "aMainC": 9326,
      "32B": 9327,
      "4d": 9328,
      "AP": 9329,
      "D60": 9330,
      "4548": 9331,
      "6CBC": 9332,
      "461C": 9333,
      "4BCF": 9334,
      "476D": 9335,
      "2F55": 9336,
      "2FC3": 9337,
      "6348": 9338,
      "_memchr": 9339,
      "0D30h": 9340,
      "CEB": 9341,
      "54E0": 9342,
      "CAB": 9343,
      "off_4B39": 9344,
      "8028h": 9345,
      "aBuffer": 9346,
      "aLic": 9347,
      "BEF": 9348,
      "DF2": 9349,
      "_inser": 9350,
      "aMultiple": 9351,
      "isofs": 9352,
      "enseGpl": 9353,
      "v3Gn": 9354,
      "aLicenseGpl": 9355,
      "aLicenseGplv3Gn": 9356,
      "1S": 9357,
      "32E": 9358,
      "AN": 9359,
      "pace": 9360,
      "var_31C": 9361,
      "4295": 9362,
      "45DC": 9363,
      "locret_48": 9364,
      "44DE": 9365,
      "469C": 9366,
      "46F5": 9367,
      "47D8": 9368,
      "off_55": 9369,
      "CCD": 9370,
      "DA6": 9371,
      "DEF": 9372,
      "2F8B80": 9373,
      "4C08": 9374,
      "aCannotRead": 9375,
      "696420": 9376,
      "aSpace": 9377,
      "desc": 9378,
      "_getopt_long": 9379,
      "CDC": 9380,
      "455E": 9381,
      "30B3": 9382,
      "469A": 9383,
      "473B": 9384,
      "4A78": 9385,
      "497C": 9386,
      "7CFh": 9387,
      "CCF": 9388,
      "EE1": 9389,
      "aPtr": 9390,
      "AB7": 9391,
      "AE5": 9392,
      "CD7": 9393,
      "4808": 9394,
      "uffix": 9395,
      "splineC": 9396,
      "6E0040": 9397,
      "_elemset": 9398,
      "0BFF0000000000000h": 9399,
      "998": 9400,
      "A10": 9401,
      "Correct": 9402,
      "casecmp": 9403,
      "lflag": 9404,
      "etch": 9405,
      "1070h": 9406,
      "4598": 9407,
      "45AA": 9408,
      "446A": 9409,
      "469B": 9410,
      "2F20": 9411,
      "6328": 9412,
      "c_lflag": 9413,
      "var_1088": 9414,
      "_driver": 9415,
      "D9F": 9416,
      "B9F": 9417,
      "BE7": 9418,
      "A92": 9419,
      "6186F0": 9420,
      "_strncasecmp": 9421,
      "igh": 9422,
      "63AA38": 9423,
      "lyCorrect": 9424,
      "638BA8": 9425,
      "aPosixlyCorrect": 9426,
      "_strspn": 9427,
      "Receiv": 9428,
      "778": 9429,
      "868h": 9430,
      "Buf": 9431,
      "Bfd": 9432,
      "Font": 9433,
      "_apply": 9434,
      "bound": 9435,
      "nam": 9436,
      "var_10B8": 9437,
      "_gss": 9438,
      "45D0": 9439,
      "45FD": 9440,
      "6C4C": 9441,
      "44F3": 9442,
      "467C": 9443,
      "471B": 9444,
      "2C67": 9445,
      "2CFE": 9446,
      "2F7A": 9447,
      "uninorm": 9448,
      "rl_ex": 9449,
      "ansion": 9450,
      "21168h": 9451,
      "aRen": 9452,
      "BA2": 9453,
      "aPcholeskyC": 9454,
      "_end": 9455,
      "_set_state": 9456,
      "AD2": 9457,
      "_tcset": 9458,
      "_strncat": 9459,
      "aTemp": 9460,
      "448B": 9461,
      "aHerm": 9462,
      "it_arg_ptr": 9463,
      "_regexp": 9464,
      "_osip_strcasecmp": 9465,
      "_gsl_stats_median": 9466,
      "aSubspace": 9467,
      "aS_4": 9468,
      "Leng": 9469,
      "4B88": 9470,
      "aQaw": 9471,
      "_gsl_sf_exp_err_e": 9472,
      "aReading": 9473,
      "plicit_arg_ptr": 9474,
      "2F8850": 9475,
      "2E9D30": 9476,
      "__rl_find_prev": 9477,
      "_rec_parse_regexp": 9478,
      "forward": 9479,
      "rl_instream_ptr": 9480,
      "___osip_transaction_set_state": 9481,
      "_ftello": 9482,
      "aRetRet": 9483,
      "aReportBugs": 9484,
      "_gsl_linalg_householder_hm": 9485,
      "argp_program": 9486,
      "_syntax_options": 9487,
      "aFileIoC": 9488,
      "rl_explicit_arg_ptr": 9489,
      "_tcsetattr": 9490,
      "12Dh": 9491,
      "ceC": 9492,
      "pre": 9493,
      "var_B2": 9494,
      "var_169": 9495,
      "4293": 9496,
      "429F": 9497,
      "44D9": 9498,
      "466A": 9499,
      "4BEA": 9500,
      "25BC": 9501,
      "0B6h": 9502,
      "var_B08": 9503,
      "61B0": 9504,
      "AD7": 9505,
      "DE7": 9506,
      "7275F8": 9507,
      "_rec_db_size": 9508,
      "307C30": 9509,
      "_gsl_ran_g": 9510,
      "asc_423C2E": 9511,
      "347": 9512,
      "9D8": 9513,
      "towc": 9514,
      "offset_ptr": 9515,
      "434F": 9516,
      "435E": 9517,
      "454F": 9518,
      "4537": 9519,
      "4729": 9520,
      "2F6E": 9521,
      "_btowc": 9522,
      "A31": 9523,
      "aW_0": 9524,
      "0FFE": 9525,
      "610300": 9526,
      "_chmod": 9527,
      "Unit": 9528,
      "history_offset_ptr": 9529,
      "441A": 9530,
      "611": 9531,
      "950": 9532,
      "lative": 9533,
      "opend": 9534,
      "var_798": 9535,
      "4630": 9536,
      "var_888": 9537,
      "4F4B": 9538,
      "6DFA": 9539,
      "0C2h": 9540,
      "__glp_b": 9541,
      "BB5": 9542,
      "plit": 9543,
      "out_ptr": 9544,
      "__glp_mpl_fp": 9545,
      "aCommand": 9546,
      "off_6228": 9547,
      "_raw_fprintf": 9548,
      "_raw_fscanf": 9549,
      "679D00": 9550,
      "aSUnrecognized": 9551,
      "44F460": 9552,
      "opendir": 9553,
      "Driver": 9554,
      "From": 9555,
      "Gap": 9556,
      "_quote": 9557,
      "a6": 9558,
      "var_11A": 9559,
      "20FF": 9560,
      "456D": 9561,
      "455C": 9562,
      "45CD": 9563,
      "locret_26": 9564,
      "locret_BB": 9565,
      "4768": 9566,
      "0D5h": 9567,
      "0FFFFFFC0h": 9568,
      "9AE0": 9569,
      "_rl_v": 9570,
      "_pipe": 9571,
      "443D": 9572,
      "46C0": 9573,
      "UseOf": 9574,
      "11Bh": 9575,
      "Bin": 9576,
      "C98": 9577,
      "var_F2": 9578,
      "var_6D8": 9579,
      "var_698": 9580,
      "4271": 9581,
[...]
